{
  ".</w>": 4,
  "of</w>": 5,
  "the</w>": 6,
  ",</w>": 7,
  "and</w>": 8,
  "@-@</w>": 9,
  "in</w>": 10,
  ")</w>": 11,
  "(</w>": 12,
  "to</w>": 13,
  "a</w>": 14,
  "with</w>": 15,
  "for</w>": 16,
  "was</w>": 17,
  "The</w>": 18,
  "were</w>": 19,
  ":</w>": 20,
  "is</w>": 21,
  "that</w>": 22,
  "by</w>": 23,
  "%</w>": 24,
  "on</w>": 25,
  "/</w>": 26,
  "as</w>": 27,
  "patients</w>": 28,
  "from</w>": 29,
  "or</w>": 30,
  "are</w>": 31,
  "an</w>": 32,
  "be</w>": 33,
  "at</w>": 34,
  "this</w>": 35,
  "1</w>": 36,
  "In</w>": 37,
  "study</w>": 38,
  "A</w>": 39,
  "2</w>": 40,
  "not</w>": 41,
  "cells</w>": 42,
  "=</w>": 43,
  ";</w>": 44,
  "between</w>": 45,
  "which</w>": 46,
  "have</w>": 47,
  "than</w>": 48,
  "cell</w>": 49,
  "after</w>": 50,
  "+</w>": 51,
  "We</w>": 52,
  "treatment</w>": 53,
  "3</w>": 54,
  "these</w>": 55,
  "This</w>": 56,
  "has</w>": 57,
  "been</w>": 58,
  "using</w>": 59,
  "we</w>": 60,
  "but</w>": 61,
  "results</w>": 62,
  "may</w>": 63,
  "group</w>": 64,
  "two</w>": 65,
  "their</w>": 66,
  "had</w>": 67,
  "P</w>": 68,
  "used</w>": 69,
  "during</w>": 70,
  "can</w>": 71,
  "also</w>": 72,
  "associated</w>": 73,
  "both</w>": 74,
  "high</w>": 75,
  "disease</w>": 76,
  "more</w>": 77,
  "analysis</w>": 78,
  "activity</w>": 79,
  "protein</w>": 80,
  "-</w>": 81,
  "5</w>": 82,
  "clinical</w>": 83,
  "data</w>": 84,
  "4</w>": 85,
  "one</w>": 86,
  "levels</w>": 87,
  "increased</w>": 88,
  "expression</w>": 89,
  "significantly</w>": 90,
  "10</w>": 91,
  "effects</w>": 92,
  "all</w>": 93,
  "time</w>": 94,
  "found</w>": 95,
  "effect</w>": 96,
  "compared</w>": 97,
  "other</w>": 98,
  "significant</w>": 99,
  "studies</w>": 100,
  "cancer</w>": 101,
  "no</w>": 102,
  "C</w>": 103,
  "&apos;</w>": 104,
  "risk</w>": 105,
  "its</w>": 106,
  "different</w>": 107,
  "human</w>": 108,
  "&lt;</w>": 109,
  "p</w>": 110,
  "showed</w>": 111,
  "&quot;</w>": 112,
  "years</w>": 113,
  "it</w>": 114,
  "control</w>": 115,
  "6</w>": 116,
  "based</w>": 117,
  "age</w>": 118,
  "use</w>": 119,
  "induced</w>": 120,
  "&apos;s</w>": 121,
  "into</w>": 122,
  "RESULTS</w>": 123,
  "These</w>": 124,
  "patient</w>": 125,
  "well</w>": 126,
  "cases</w>": 127,
  "higher</w>": 128,
  "only</w>": 129,
  "most</w>": 130,
  "gene</w>": 131,
  "related</w>": 132,
  "response</w>": 133,
  "rate</w>": 134,
  "&#91;</w>": 135,
  "blood</w>": 136,
  "groups</w>": 137,
  "observed</w>": 138,
  "&#93;</w>": 139,
  "specific</w>": 140,
  "low</w>": 141,
  "three</w>": 142,
  "present</w>": 143,
  "model</w>": 144,
  "type</w>": 145,
  "METHODS</w>": 146,
  "such</w>": 147,
  "system</w>": 148,
  "who</w>": 149,
  "health</w>": 150,
  "role</w>": 151,
  "B</w>": 152,
  "factors</w>": 153,
  "when</w>": 154,
  "non</w>": 155,
  "acid</w>": 156,
  "T</w>": 157,
  "However</w>": 158,
  "first</w>": 159,
  "up</w>": 160,
  "those</w>": 161,
  "therapy</w>": 162,
  "changes</w>": 163,
  "function</w>": 164,
  "increase</w>": 165,
  "level</w>": 166,
  "To</w>": 167,
  "total</w>": 168,
  "n</w>": 169,
  "respectively</w>": 170,
  "method</w>": 171,
  "development</w>": 172,
  "DNA</w>": 173,
  "I</w>": 174,
  "normal</w>": 175,
  "new</w>": 176,
  "care</w>": 177,
  "performed</w>": 178,
  "growth</w>": 179,
  "among</w>": 180,
  "could</w>": 181,
  "potential</w>": 182,
  "treated</w>": 183,
  "children</w>": 184,
  "-": 185,
  "tumor</w>": 186,
  "mean</w>": 187,
  "less</w>": 188,
  "factor</w>": 189,
  "N</w>": 190,
  "number</w>": 191,
  "within</w>": 192,
  "important</w>": 193,
  "mg</w>": 194,
  "case</w>": 195,
  "reported</w>": 196,
  "including</w>": 197,
  "12</w>": 198,
  "through</w>": 199,
  "lower</w>": 200,
  "binding</w>": 201,
  "receptor</w>": 202,
  "95</w>": 203,
  "women</w>": 204,
  "without</w>": 205,
  "year</w>": 206,
  "tissue</w>": 207,
  "8</w>": 208,
  "rats</w>": 209,
  "months</w>": 210,
  "positive</w>": 211,
  "It</w>": 212,
  "L</w>": 213,
  "did</w>": 214,
  "7</w>": 215,
  "mice</w>": 216,
  "days</w>": 217,
  "our</w>": 218,
  "20</w>": 219,
  "identified</w>": 220,
  "each</w>": 221,
  "over</w>": 222,
  "there</w>": 223,
  "suggest</w>": 224,
  "test</w>": 225,
  "CONCLUSIONS</w>": 226,
  "diagnosis</w>": 227,
  "dose</w>": 228,
  "findings</w>": 229,
  "B": 230,
  "proteins</w>": 231,
  "presence</w>": 232,
  "alpha</w>": 233,
  "infection</w>": 234,
  "primary</w>": 235,
  "single</w>": 236,
  "L": 237,
  "early</w>": 238,
  "reduced</w>": 239,
  "surgery</w>": 240,
  "differences</w>": 241,
  "similar</w>": 242,
  "beta</w>": 243,
  "due</w>": 244,
  "D</w>": 245,
  "serum</w>": 246,
  "while</w>": 247,
  "evidence</w>": 248,
  "30</w>": 249,
  "S": 250,
  "brain</w>": 251,
  "population</w>": 252,
  "obtained</w>": 253,
  "drug</w>": 254,
  "about</w>": 255,
  "review</w>": 256,
  "genes</w>": 257,
  "studied</w>": 258,
  "h</w>": 259,
  "species</w>": 260,
  "D": 261,
  "day</w>": 262,
  "decreased</w>": 263,
  "under</w>": 264,
  "some</w>": 265,
  "CI</w>": 266,
  "dependent</w>": 267,
  "measured</w>": 268,
  "R": 269,
  "conditions</w>": 270,
  "There</w>": 271,
  "II</w>": 272,
  "G": 273,
  "15</w>": 274,
  "plasma</w>": 275,
  "concentration</w>": 276,
  "following</w>": 277,
  "F": 278,
  "s</w>": 279,
  "BACKGROUND</w>": 280,
  "long</w>": 281,
  "should</w>": 282,
  "S</w>": 283,
  "liver</w>": 284,
  "concentrations</w>": 285,
  "M": 286,
  "T": 287,
  "addition</w>": 288,
  "developed</w>": 289,
  "report</w>": 290,
  "revealed</w>": 291,
  "range</w>": 292,
  "acute</w>": 293,
  "survival</w>": 294,
  "subjects</w>": 295,
  "period</w>": 296,
  "50</w>": 297,
  "they</w>": 298,
  "N": 299,
  "investigated</w>": 300,
  "demonstrated</w>": 301,
  "show</w>": 302,
  "±</w>": 303,
  "small</w>": 304,
  "C": 305,
  "bone</w>": 306,
  "vitro</w>": 307,
  "chronic</w>": 308,
  "four</w>": 309,
  "common</w>": 310,
  "included</w>": 311,
  "research</w>": 312,
  "H": 313,
  "pressure</w>": 314,
  "activation</w>": 315,
  "E</w>": 316,
  "samples</w>": 317,
  "large</w>": 318,
  "CONCLUSION</w>": 319,
  "molecular</w>": 320,
  "P": 321,
  "major</w>": 322,
  "term</w>": 323,
  "complex</w>": 324,
  "examined</w>": 325,
  "M</w>": 326,
  "effective</w>": 327,
  "kg</w>": 328,
  "surface</w>": 329,
  "evaluated</w>": 330,
  "methods</w>": 331,
  "approach</w>": 332,
  "against</w>": 333,
  "24</w>": 334,
  "rates</w>": 335,
  "per</w>": 336,
  "body</w>": 337,
  "either</w>": 338,
  "Our</w>": 339,
  "determine</w>": 340,
  "p": 341,
  "functional</w>": 342,
  "E": 343,
  "anti</w>": 344,
  "further</w>": 345,
  "determined</w>": 346,
  "structure</w>": 347,
  "9</w>": 348,
  "phase</w>": 349,
  "virus</w>": 350,
  "5": 351,
  "quality</w>": 352,
  "pain</w>": 353,
  "H</w>": 354,
  "IL</w>": 355,
  "before</w>": 356,
  "membrane</w>": 357,
  "values</w>": 358,
  "100</w>": 359,
  "muscle</w>": 360,
  "&gt;</w>": 361,
  "non": 362,
  "information</w>": 363,
  "same</w>": 364,
  "vs</w>": 365,
  "rat</w>": 366,
  "symptoms</w>": 367,
  "greater</w>": 368,
  "stress</w>": 369,
  "process</w>": 370,
  "production</w>": 371,
  "free</w>": 372,
  "whether</w>": 373,
  "will</w>": 374,
  "weight</w>": 375,
  "various</w>": 376,
  "min</w>": 377,
  "provide</w>": 378,
  "life</w>": 379,
  "shown</w>": 380,
  "formation</w>": 381,
  "known</w>": 382,
  "negative</w>": 383,
  "responses</w>": 384,
  "management</w>": 385,
  "exposure</w>": 386,
  "out</w>": 387,
  "A": 388,
  "follow</w>": 389,
  "i</w>": 390,
  "ratio</w>": 391,
  "water</w>": 392,
  "6": 393,
  "0.05</w>": 394,
  "detected</w>": 395,
  "involved</w>": 396,
  "mechanisms</w>": 397,
  "syndrome</w>": 398,
  "o</w>": 399,
  "14</w>": 400,
  "R</w>": 401,
  "11</w>": 402,
  "O": 403,
  "current</w>": 404,
  "weeks</w>": 405,
  "multiple</w>": 406,
  "re": 407,
  "several</w>": 408,
  "novel</w>": 409,
  "change</w>": 410,
  "mortality</w>": 411,
  "properties</w>": 412,
  "G</w>": 413,
  "18</w>": 414,
  "outcomes</w>": 415,
  "possible</w>": 416,
  "lung</w>": 417,
  "performance</w>": 418,
  "difference</w>": 419,
  "any</w>": 420,
  "old</w>": 421,
  "resistance</w>": 422,
  "like</w>": 423,
  "assessed</w>": 424,
  "medical</w>": 425,
  "active</w>": 426,
  "region</w>": 427,
  "surgical</w>": 428,
  "heart</w>": 429,
  "4": 430,
  "association</w>": 431,
  "reduction</w>": 432,
  "controls</w>": 433,
  "25</w>": 434,
  "loss</w>": 435,
  "size</w>": 436,
  "renal</w>": 437,
  "models</w>": 438,
  "enzyme</w>": 439,
  "7": 440,
  "vivo</w>": 441,
  "mechanism</w>": 442,
  "flow</w>": 443,
  "whereas</w>": 444,
  "ability</w>": 445,
  "un": 446,
  "X</w>": 447,
  "injury</w>": 448,
  "V": 449,
  "imaging</w>": 450,
  "isolated</w>": 451,
  "O</w>": 452,
  "I": 453,
  "g</w>": 454,
  "site</w>": 455,
  "severe</w>": 456,
  "c</w>": 457,
  "K": 458,
  "mass</w>": 459,
  "analyzed</w>": 460,
  "mediated</w>": 461,
  "many</w>": 462,
  "HIV</w>": 463,
  "evaluate</w>": 464,
  "13</w>": 465,
  "40</w>": 466,
  "technique</w>": 467,
  "inhibition</w>": 468,
  "stage</w>": 469,
  "frequency</w>": 470,
  "presented</w>": 471,
  "support</w>": 472,
  "K</w>": 473,
  "value</w>": 474,
  "being</w>": 475,
  "contrast</w>": 476,
  "area</w>": 477,
  "characteristics</w>": 478,
  "16</w>": 479,
  "An</w>": 480,
  "diseases</w>": 481,
  "9": 482,
  "8": 483,
  "genetic</w>": 484,
  "relationship</w>": 485,
  "via</w>": 486,
  "All</w>": 487,
  "work</w>": 488,
  "state</w>": 489,
  "self</w>": 490,
  "left</w>": 491,
  "order</w>": 492,
  "parameters</w>": 493,
  "decrease</w>": 494,
  "form</w>": 495,
  "lesions</w>": 496,
  "outcome</w>": 497,
  "detection</w>": 498,
  "Although</w>": 499,
  "reaction</w>": 500,
  "in": 501,
  "breast</w>": 502,
  "hospital</w>": 503,
  "60</w>": 504,
  "very</w>": 505,
  "0.001</w>": 506,
  "us</w>": 507,
  "five</w>": 508,
  "glucose</w>": 509,
  "indicate</w>": 510,
  "administration</w>": 511,
  "incidence</w>": 512,
  "male</w>": 513,
  "healthy</w>": 514,
  "systems</w>": 515,
  "post</w>": 516,
  "status</w>": 517,
  "caused</w>": 518,
  "containing</w>": 519,
  "therapeutic</w>": 520,
  "As</w>": 521,
  "sensitivity</w>": 522,
  "however</w>": 523,
  "required</w>": 524,
  "family</w>": 525,
  "F</w>": 526,
  "t</w>": 527,
  "sequence</w>": 528,
  "release</w>": 529,
  "derived</w>": 530,
  "considered</w>": 531,
  "described</w>": 532,
  "cause</w>": 533,
  "tested</w>": 534,
  "cardiac</w>": 535,
  "evaluation</w>": 536,
  "followed</w>": 537,
  "tumors</w>": 538,
  "types</w>": 539,
  "previously</w>": 540,
  "highly</w>": 541,
  "sites</w>": 542,
  "x</w>": 543,
  "RNA</w>": 544,
  "second</w>": 545,
  "animals</w>": 546,
  "synthesis</w>": 547,
  "inflammatory</w>": 548,
  "carcinoma</w>": 549,
  "result</w>": 550,
  "For</w>": 551,
  "target</w>": 552,
  "receptors</w>": 553,
  "identify</w>": 554,
  "conducted</w>": 555,
  "Here</w>": 556,
  "correlation</w>": 557,
  "AND</w>": 558,
  "investigate</w>": 559,
  "mRNA</w>": 560,
  "OBJECTIVE</w>": 561,
  "available</w>": 562,
  "complications</w>": 563,
  "immune</w>": 564,
  "Patients</w>": 565,
  "received</w>": 566,
  "experimental</w>": 567,
  "amino</w>": 568,
  "distribution</w>": 569,
  "insulin</w>": 570,
  "because</w>": 571,
  "After</w>": 572,
  "ml</w>": 573,
  "assess</w>": 574,
  "influence</w>": 575,
  "assay</w>": 576,
  "produced</w>": 577,
  "s": 578,
  "oral</w>": 579,
  "17</w>": 580,
  "o": 581,
  "regulation</w>": 582,
  "0</w>": 583,
  "impact</w>": 584,
  "features</w>": 585,
  "efficacy</w>": 586,
  "expressed</w>": 587,
  "drugs</w>": 588,
  "death</w>": 589,
  "improved</w>": 590,
  "better</w>": 591,
  "aim</w>": 592,
  "general</w>": 593,
  "assessment</w>": 594,
  "standard</w>": 595,
  "combination</w>": 596,
  "how</w>": 597,
  "if</w>": 598,
  "diabetes</w>": 599,
  "prevalence</w>": 600,
  "adult</w>": 601,
  "individuals</w>": 602,
  "stimulation</w>": 603,
  "volume</w>": 604,
  "Results</w>": 605,
  "able</w>": 606,
  "mm</w>": 607,
  "failure</w>": 608,
  "pathway</w>": 609,
  "field</w>": 610,
  "skin</w>": 611,
  "artery</w>": 612,
  "di": 613,
  "physical</w>": 614,
  "V</w>": 615,
  "content</w>": 616,
  "kinase</w>": 617,
  "literature</w>": 618,
  "activities</w>": 619,
  "sample</w>": 620,
  "CT</w>": 621,
  "cellular</w>": 622,
  "increasing</w>": 623,
  "light</w>": 624,
  "tissues</w>": 625,
  "overall</w>": 626,
  "21</w>": 627,
  "indicated</w>": 628,
  "W": 629,
  "pulmonary</w>": 630,
  "energy</w>": 631,
  "disorders</w>": 632,
  "antibodies</w>": 633,
  "cross</w>": 634,
  "relative</w>": 635,
  "d</w>": 636,
  "men</w>": 637,
  "line</w>": 638,
  "interaction</w>": 639,
  "intervention</w>": 640,
  "antibody</w>": 641,
  "analyses</w>": 642,
  "six</w>": 643,
  "index</w>": 644,
  "end</w>": 645,
  "independent</w>": 646,
  "vascular</w>": 647,
  "then</w>": 648,
  "female</w>": 649,
  "correlated</w>": 650,
  "temperature</w>": 651,
  "often</w>": 652,
  "mouse</w>": 653,
  "density</w>": 654,
  "individual</w>": 655,
  "19</w>": 656,
  "2": 657,
  "need</w>": 658,
  "m</w>": 659,
  "least</w>": 660,
  "made</w>": 661,
  "procedure</w>": 662,
  "likely</w>": 663,
  "improve</w>": 664,
  "underwent</w>": 665,
  "versus</w>": 666,
  "characterized</w>": 667,
  "No</w>": 668,
  "average</w>": 669,
  "where</w>": 670,
  "participants</w>": 671,
  "part</w>": 672,
  "pattern</w>": 673,
  "neurons</w>": 674,
  "diagnostic</w>": 675,
  "m": 676,
  "r</w>": 677,
  "3": 678,
  "strains</w>": 679,
  "patterns</w>": 680,
  "demonstrate</w>": 681,
  "initial</w>": 682,
  "d": 683,
  "score</w>": 684,
  "enhanced</w>": 685,
  "culture</w>": 686,
  "techniques</w>": 687,
  "l</w>": 688,
  "occurred</w>": 689,
  "given</w>": 690,
  "controlled</w>": 691,
  "tests</w>": 692,
  "might</w>": 693,
  "applied</w>": 694,
  "regions</w>": 695,
  "h": 696,
  "b": 697,
  "central</w>": 698,
  "combined</w>": 699,
  "coronary</w>": 700,
  "At</w>": 701,
  "right</w>": 702,
  "adults</w>": 703,
  "c": 704,
  "action</w>": 705,
  "sensitive</w>": 706,
  "e</w>": 707,
  "areas</w>": 708,
  "events</w>": 709,
  "affected</w>": 710,
  "times</w>": 711,
  "paper</w>": 712,
  "inhibitor</w>": 713,
  "length</w>": 714,
  "U": 715,
  "local</w>": 716,
  "behavior</w>": 717,
  "signaling</w>": 718,
  "inhibited</w>": 719,
  "knowledge</w>": 720,
  "processes</w>": 721,
  "Two</w>": 722,
  "pH</w>": 723,
  "seen</w>": 724,
  "social</w>": 725,
  "collected</w>": 726,
  "limited</w>": 727,
  "discussed</w>": 728,
  "degrees</w>": 729,
  "proliferation</w>": 730,
  "Furthermore</w>": 731,
  "them</w>": 732,
  "al</w>": 733,
  "sub": 734,
  "short</w>": 735,
  "recent</w>": 736,
  "compounds</w>": 737,
  "direct</w>": 738,
  "would</w>": 739,
  "comparison</w>": 740,
  "chain</w>": 741,
  "antigen</w>": 742,
  "resulted</w>": 743,
  "es</w>": 744,
  "useful</w>": 745,
  "good</w>": 746,
  "interactions</w>": 747,
  "micro": 748,
  "biological</w>": 749,
  "regression</w>": 750,
  "practice</w>": 751,
  "side</w>": 752,
  "Using</w>": 753,
  "training</w>": 754,
  "confirmed</w>": 755,
  "suggested</w>": 756,
  "history</w>": 757,
  "duration</w>": 758,
  "trial</w>": 759,
  "increases</w>": 760,
  "even</w>": 761,
  "trials</w>": 762,
  "0.01</w>": 763,
  "agents</w>": 764,
  "t": 765,
  "nerve</w>": 766,
  "complete</w>": 767,
  "e": 768,
  "measures</w>": 769,
  "median</w>": 770,
  "across</w>": 771,
  "i": 772,
  "application</w>": 773,
  "understanding</w>": 774,
  "baseline</w>": 775,
  "an": 776,
  "22</w>": 777,
  "suggests</w>": 778,
  "screening</w>": 779,
  "OR</w>": 780,
  "calcium</w>": 781,
  "experiments</w>": 782,
  "er</w>": 783,
  "III</w>": 784,
  "aged</w>": 785,
  "ate</w>": 786,
  "b</w>": 787,
  "structures</w>": 788,
  "established</w>": 789,
  "n": 790,
  "90</w>": 791,
  "approximately</w>": 792,
  "injection</w>": 793,
  "proposed</w>": 794,
  "metabolism</w>": 795,
  "scores</w>": 796,
  "damage</w>": 797,
  "infected</w>": 798,
  "previous</w>": 799,
  "suggesting</w>": 800,
  "Thus</w>": 801,
  "defined</w>": 802,
  "k": 803,
  "strain</w>": 804,
  "peptide</w>": 805,
  "a": 806,
  "selected</w>": 807,
  "PCR</w>": 808,
  "secondary</w>": 809,
  "One</w>": 810,
  "exercise</w>": 811,
  "mutations</w>": 812,
  "main</w>": 813,
  "peripheral</w>": 814,
  "ed</w>": 815,
  "disorder</w>": 816,
  "measurements</w>": 817,
  "examination</w>": 818,
  "apoptosis</w>": 819,
  "ing</w>": 820,
  "differentiation</w>": 821,
  "key</w>": 822,
  "activated</w>": 823,
  "pregnancy</w>": 824,
  "r": 825,
  "do</w>": 826,
  "80</w>": 827,
  "postoperative</w>": 828,
  "lines</w>": 829,
  "visual</w>": 830,
  "ation</w>": 831,
  "metabolic</w>": 832,
  "acids</w>": 833,
  "domain</w>": 834,
  "functions</w>": 835,
  "essential</w>": 836,
  "especially</w>": 837,
  "alone</w>": 838,
  "rare</w>": 839,
  "components</w>": 840,
  "provides</w>": 841,
  "critical</w>": 842,
  "infections</w>": 843,
  "does</w>": 844,
  "When</w>": 845,
  "al": 846,
  "design</w>": 847,
  "testing</w>": 848,
  "lead</w>": 849,
  "sex</w>": 850,
  "MS</w>": 851,
  "basis</w>": 852,
  "oxygen</w>": 853,
  "experience</w>": 854,
  "scale</w>": 855,
  "lipid</w>": 856,
  "transcription</w>": 857,
  "fold</w>": 858,
  "still</w>": 859,
  "ventricular</w>": 860,
  "according</w>": 861,
  "structural</w>": 862,
  "criteria</w>": 863,
  "diagnosed</w>": 864,
  "progression</w>": 865,
  "hours</w>": 866,
  "resistant</w>": 867,
  "affect</w>": 868,
  "signal</w>": 869,
  "series</w>": 870,
  "f": 871,
  "strategies</w>": 872,
  "y</w>": 873,
  "onset</w>": 874,
  "improvement</w>": 875,
  "week</w>": 876,
  "point</w>": 877,
  "rapid</w>": 878,
  "thus</w>": 879,
  "28</w>": 880,
  "additional</w>": 881,
  "play</w>": 882,
  "g": 883,
  "cycle</w>": 884,
  "pathways</w>": 885,
  "daily</w>": 886,
  "70</w>": 887,
  "remains</w>": 888,
  "kidney</w>": 889,
  "cohort</w>": 890,
  "inhibitors</w>": 891,
  "35</w>": 892,
  "describe</w>": 893,
  "future</w>": 894,
  "populations</w>": 895,
  "on": 896,
  "reduce</w>": 897,
  "cognitive</w>": 898,
  "absence</w>": 899,
  "chemotherapy</w>": 900,
  "delivery</w>": 901,
  "fluid</w>": 902,
  "community</w>": 903,
  "food</w>": 904,
  "although</w>": 905,
  "electron</w>": 906,
  "products</w>": 907,
  "23</w>": 908,
  "molecules</w>": 909,
  "respiratory</w>": 910,
  "doses</w>": 911,
  "course</w>": 912,
  "cost</w>": 913,
  "gamma</w>": 914,
  "l": 915,
  "Of</w>": 916,
  "provided</w>": 917,
  "induction</w>": 918,
  "chemical</w>": 919,
  "With</w>": 920,
  "poor</w>": 921,
  "older</w>": 922,
  "importance</w>": 923,
  "medium</w>": 924,
  "article</w>": 925,
  "1": 926,
  "?</w>": 927,
  "interval</w>": 928,
  "solution</w>": 929,
  "procedures</w>": 930,
  "degree</w>": 931,
  "uptake</w>": 932,
  "pre</w>": 933,
  "depression</w>": 934,
  "administered</w>": 935,
  "hypertension</w>": 936,
  "young</w>": 937,
  "linked</w>": 938,
  "nuclear</w>": 939,
  "diet</w>": 940,
  ".": 941,
  "randomized</w>": 942,
  "On</w>": 943,
  "hormone</w>": 944,
  "bacterial</w>": 945,
  "resulting</w>": 946,
  "prior</w>": 947,
  "exposed</w>": 948,
  "Both</w>": 949,
  "capacity</w>": 950,
  "elevated</w>": 951,
  "condition</w>": 952,
  "48</w>": 953,
  "sequences</w>": 954,
  "problems</w>": 955,
  "markers</w>": 956,
  "recovery</w>": 957,
  "natural</w>": 958,
  "Health</w>": 959,
  "β</w>": 960,
  "transport</w>": 961,
  "people</w>": 962,
  "stem</w>": 963,
  "J": 964,
  "achieved</w>": 965,
  "host</w>": 966,
  "Moreover</w>": 967,
  "pre": 968,
  "component</w>": 969,
  "particularly</w>": 970,
  "mutation</w>": 971,
  "month</w>": 972,
  "so</w>": 973,
  "safety</w>": 974,
  "open</w>": 975,
  "purpose</w>": 976,
  "ated</w>": 977,
  "de": 978,
  "endothelial</w>": 979,
  "secretion</w>": 980,
  "anti": 981,
  "gastric</w>": 982,
  "cardiovascular</w>": 983,
  "systemic</w>": 984,
  "variables</w>": 985,
  "inflammation</w>": 986,
  "en": 987,
  "stable</w>": 988,
  "myocardial</w>": 989,
  "stroke</w>": 990,
  "26</w>": 991,
  "45</w>": 992,
  "arterial</w>": 993,
  "set</w>": 994,
  "adverse</w>": 995,
  "radiation</w>": 996,
  "consistent</w>": 997,
  "viral</w>": 998,
  "cerebral</w>": 999,
  "examine</w>": 1000,
  "position</w>": 1001,
  "U</w>": 1002,
  "needed</w>": 1003,
  "specificity</w>": 1004,
  "epithelial</w>": 1005,
  "statistically</w>": 1006,
  "transfer</w>": 1007,
  "transplantation</w>": 1008,
  "Therefore</w>": 1009,
  "terminal</w>": 1010,
  "coli</w>": 1011,
  "whole</w>": 1012,
  "conventional</w>": 1013,
  "recorded</w>": 1014,
  "Y": 1015,
  "program</w>": 1016,
  "motor</w>": 1017,
  "co</w>": 1018,
  "causes</w>": 1019,
  "36</w>": 1020,
  "monitoring</w>": 1021,
  "include</w>": 1022,
  "few</w>": 1023,
  "variation</w>": 1024,
  "modified</w>": 1025,
  "cholesterol</w>": 1026,
  "cm</w>": 1027,
  "class</w>": 1028,
  "highest</w>": 1029,
  "carried</w>": 1030,
  "27</w>": 1031,
  "severity</w>": 1032,
  "calculated</w>": 1033,
  "particular</w>": 1034,
  "upon</w>": 1035,
  "therefore</w>": 1036,
  "anterior</w>": 1037,
  "selective</w>": 1038,
  "develop</w>": 1039,
  "regarding</w>": 1040,
  "plant</w>": 1041,
  "identification</w>": 1042,
  "quantitative</w>": 1043,
  "distinct</w>": 1044,
  "double</w>": 1045,
  "magnetic</w>": 1046,
  "ic</w>": 1047,
  "estimated</w>": 1048,
  "inter": 1049,
  "forms</w>": 1050,
  "repair</w>": 1051,
  "simple</w>": 1052,
  "mental</w>": 1053,
  "measure</w>": 1054,
  "stimulated</w>": 1055,
  "animal</w>": 1056,
  "3.": 1057,
  "infants</w>": 1058,
  "32</w>": 1059,
  "ol": 1060,
  "eight</w>": 1061,
  "late</w>": 1062,
  "sodium</w>": 1063,
  "underlying</w>": 1064,
  "terms</w>": 1065,
  "y": 1066,
  "seven</w>": 1067,
  "MRI</w>": 1068,
  "alcohol</w>": 1069,
  "aimed</w>": 1070,
  "environmental</w>": 1071,
  "hepatic</w>": 1072,
  "wide</w>": 1073,
  "approaches</w>": 1074,
  "treatments</w>": 1075,
  "fat</w>": 1076,
  "environment</w>": 1077,
  "During</w>": 1078,
  "Ca2</w>": 1079,
  "ers</w>": 1080,
  "dysfunction</w>": 1081,
  "strong</w>": 1082,
  "31</w>": 1083,
  "sleep</w>": 1084,
  "spinal</w>": 1085,
  "necessary</w>": 1086,
  "75</w>": 1087,
  "bacteria</w>": 1088,
  "Among</w>": 1089,
  "mutant</w>": 1090,
  "maximum</w>": 1091,
  "having</w>": 1092,
  "laboratory</w>": 1093,
  "reviewed</w>": 1094,
  "survey</w>": 1095,
  "developing</w>": 1096,
  "relatively</w>": 1097,
  "head</w>": 1098,
  "occur</w>": 1099,
  "much</w>": 1100,
  "i.e.</w>": 1101,
  "best</w>": 1102,
  "moderate</w>": 1103,
  "linear</w>": 1104,
  "toxicity</w>": 1105,
  "intracellular</w>": 1106,
  "malignant</w>": 1107,
  "exhibited</w>": 1108,
  "amount</w>": 1109,
  "measurement</w>": 1110,
  "v": 1111,
  "indicating</w>": 1112,
  "um</w>": 1113,
  "accuracy</w>": 1114,
  "prevention</w>": 1115,
  "genome</w>": 1116,
  "grade</w>": 1117,
  "ating</w>": 1118,
  "Clinical</w>": 1119,
  "processing</w>": 1120,
  "designed</w>": 1121,
  "interventions</w>": 1122,
  "strategy</w>": 1123,
  "hyper": 1124,
  "Group</w>": 1125,
  "students</w>": 1126,
  "compare</w>": 1127,
  "relevant</w>": 1128,
  "males</w>": 1129,
  "subsequent</w>": 1130,
  "advanced</w>": 1131,
  "microscopy</w>": 1132,
  "frequently</w>": 1133,
  "regulated</w>": 1134,
  "alternative</w>": 1135,
  "appropriate</w>": 1136,
  "education</w>": 1137,
  "diabetic</w>": 1138,
  "peak</w>": 1139,
  "enzymes</w>": 1140,
  "lack</w>": 1141,
  "α</w>": 1142,
  "half</w>": 1143,
  "mL</w>": 1144,
  "generation</w>": 1145,
  "involvement</w>": 1146,
  "appears</w>": 1147,
  "females</w>": 1148,
  "intensity</w>": 1149,
  "intake</w>": 1150,
  "contribute</w>": 1151,
  "effectiveness</w>": 1152,
  "mainly</w>": 1153,
  "recently</w>": 1154,
  "along</w>": 1155,
  "stability</w>": 1156,
  "prospective</w>": 1157,
  "matrix</w>": 1158,
  "help</w>": 1159,
  "means</w>": 1160,
  "little</w>": 1161,
  "ar": 1162,
  "learning</w>": 1163,
  "network</w>": 1164,
  "extent</w>": 1165,
  "inhibitory</w>": 1166,
  "am": 1167,
  "directly</w>": 1168,
  "source</w>": 1169,
  "or": 1170,
  "st": 1171,
  "37</w>": 1172,
  "leading</w>": 1173,
  "op": 1174,
  "X": 1175,
  "confidence</w>": 1176,
  "physiological</w>": 1177,
  "tool</w>": 1178,
  "33</w>": 1179,
  "authors</w>": 1180,
  "co": 1181,
  "accumulation</w>": 1182,
  "led</w>": 1183,
  "ations</w>": 1184,
  "wild</w>": 1185,
  "together</w>": 1186,
  "urinary</w>": 1187,
  "-1</w>": 1188,
  "material</w>": 1189,
  "yl</w>": 1190,
  "ac": 1191,
  "ates</w>": 1192,
  "objective</w>": 1193,
  "at": 1194,
  "placebo</w>": 1195,
  "Z": 1196,
  "PURPOSE</w>": 1197,
  "images</w>": 1198,
  "hand</w>": 1199,
  "Data</w>": 1200,
  "memory</w>": 1201,
  "third</w>": 1202,
  "selection</w>": 1203,
  "efficiency</w>": 1204,
  "29</w>": 1205,
  "65</w>": 1206,
  "problem</w>": 1207,
  "2.": 1208,
  "composition</w>": 1209,
  "er": 1210,
  "0.5</w>": 1211,
  "oc": 1212,
  "affinity</w>": 1213,
  "wall</w>": 1214,
  "By</w>": 1215,
  "PD</w>": 1216,
  "cortex</w>": 1217,
  "hypothesis</w>": 1218,
  "fraction</w>": 1219,
  "u": 1220,
  "since</w>": 1221,
  "red</w>": 1222,
  "In": 1223,
  "IV</w>": 1224,
  "mitochondrial</w>": 1225,
  "invasive</w>": 1226,
  "birth</w>": 1227,
  "shows</w>": 1228,
  "dimensional</w>": 1229,
  "resection</w>": 1230,
  "internal</w>": 1231,
  "Ca</w>": 1232,
  "cultures</w>": 1233,
  "resonance</w>": 1234,
  "lesion</w>": 1235,
  "ap": 1236,
  "Study</w>": 1237,
  "reports</w>": 1238,
  "agent</w>": 1239,
  "SD</w>": 1240,
  "CD": 1241,
  "isolates</w>": 1242,
  "Three</w>": 1243,
  "k</w>": 1244,
  "liquid</w>": 1245,
  "recurrence</w>": 1246,
  "poly": 1247,
  "predicted</w>": 1248,
  "fatty</w>": 1249,
  "ion</w>": 1250,
  "fetal</w>": 1251,
  "applications</w>": 1252,
  "corresponding</w>": 1253,
  "remained</w>": 1254,
  "generated</w>": 1255,
  "42</w>": 1256,
  "investigation</w>": 1257,
  "later</w>": 1258,
  "resolution</w>": 1259,
  "J</w>": 1260,
  "aortic</w>": 1261,
  "ine</w>": 1262,
  "reactions</w>": 1263,
  "substrate</w>": 1264,
  "regulatory</w>": 1265,
  "10": 1266,
  "pro": 1267,
  "step</w>": 1268,
  "stages</w>": 1269,
  "miR</w>": 1270,
  "clinically</w>": 1271,
  "prognosis</w>": 1272,
  "unique</w>": 1273,
  "carbon</w>": 1274,
  "prostate</w>": 1275,
  "attention</w>": 1276,
  "must</w>": 1277,
  "variety</w>": 1278,
  "oxide</w>": 1279,
  "complexes</w>": 1280,
  "mechanical</w>": 1281,
  "cervical</w>": 1282,
  "way</w>": 1283,
  "child</w>": 1284,
  "public</w>": 1285,
  "unknown</w>": 1286,
  "smoking</w>": 1287,
  "larger</w>": 1288,
  "plants</w>": 1289,
  "°</w>": 1290,
  "AD</w>": 1291,
  "relation</w>": 1292,
  "phosphorylation</w>": 1293,
  "full</w>": 1294,
  "responsible</w>": 1295,
  "induce</w>": 1296,
  "partial</w>": 1297,
  "oxidative</w>": 1298,
  "profile</w>": 1299,
  "intestinal</w>": 1300,
  "tomography</w>": 1301,
  "strength</w>": 1302,
  "retrospective</w>": 1303,
  "Based</w>": 1304,
  "specimens</w>": 1305,
  "biopsy</w>": 1306,
  "lateral</w>": 1307,
  "34</w>": 1308,
  "ro": 1309,
  "chromatography</w>": 1310,
  "services</w>": 1311,
  "percent</w>": 1312,
  "dynamics</w>": 1313,
  "extracellular</w>": 1314,
  "iron</w>": 1315,
  "above</w>": 1316,
  "product</w>": 1317,
  "strongly</w>": 1318,
  "cultured</w>": 1319,
  "unit</w>": 1320,
  "neural</w>": 1321,
  "operation</w>": 1322,
  "transmission</w>": 1323,
  "commonly</w>": 1324,
  "assays</w>": 1325,
  "percentage</w>": 1326,
  "proportion</w>": 1327,
  "reference</w>": 1328,
  "ng</w>": 1329,
  "majority</w>": 1330,
  "im": 1331,
  "undergoing</w>": 1332,
  "receiving</w>": 1333,
  "tract</w>": 1334,
  "Treatment</w>": 1335,
  "os": 1336,
  "last</w>": 1337,
  "consumption</w>": 1338,
  "layer</w>": 1339,
  "thyroid</w>": 1340,
  "Y</w>": 1341,
  "38</w>": 1342,
  "countries</w>": 1343,
  "as": 1344,
  "maternal</w>": 1345,
  "et</w>": 1346,
  "significance</w>": 1347,
  "longer</w>": 1348,
  "upper</w>": 1349,
  "produce</w>": 1350,
  "DESIGN</w>": 1351,
  "OBJECTIVES</w>": 1352,
  "rather</w>": 1353,
  "abdominal</w>": 1354,
  "laser</w>": 1355,
  "ic": 1356,
  "ting</w>": 1357,
  "ia</w>": 1358,
  "TNF</w>": 1359,
  "Further</w>": 1360,
  "removal</w>": 1361,
  "lymphocytes</w>": 1362,
  "real</w>": 1363,
  "Analysis</w>": 1364,
  "ot": 1365,
  "efficient</w>": 1366,
  "optimal</w>": 1367,
  "55</w>": 1368,
  "om": 1369,
  "materials</w>": 1370,
  "They</w>": 1371,
  "residues</w>": 1372,
  "degradation</w>": 1373,
  "formed</w>": 1374,
  "posterior</w>": 1375,
  "basal</w>": 1376,
  "metal</w>": 1377,
  "deficiency</w>": 1378,
  "Methods</w>": 1379,
  "prepared</w>": 1380,
  "phosphate</w>": 1381,
  "power</w>": 1382,
  "ATP</w>": 1383,
  "fluorescence</w>": 1384,
  "reactive</w>": 1385,
  "is": 1386,
  "taken</w>": 1387,
  "published</w>": 1388,
  "neuronal</w>": 1389,
  "chromosome</w>": 1390,
  "bound</w>": 1391,
  "temporal</w>": 1392,
  "located</w>": 1393,
  "prevent</w>": 1394,
  "occurs</w>": 1395,
  "focus</w>": 1396,
  "continuous</w>": 1397,
  "elderly</w>": 1398,
  "migration</w>": 1399,
  "marker</w>": 1400,
  "infusion</w>": 1401,
  "promoter</w>": 1402,
  "morbidity</w>": 1403,
  "points</w>": 1404,
  "task</w>": 1405,
  "image</w>": 1406,
  "ch": 1407,
  "staining</w>": 1408,
  "abnormalities</w>": 1409,
  "purified</w>": 1410,
  "humans</w>": 1411,
  "man</w>": 1412,
  "72</w>": 1413,
  "pancreatic</w>": 1414,
  "channel</w>": 1415,
  "involving</w>": 1416,
  "microM</w>": 1417,
  "dis": 1418,
  "mild</w>": 1419,
  "yet</w>": 1420,
  "Q</w>": 1421,
  "vitamin</w>": 1422,
  "potentially</w>": 1423,
  "phenotype</w>": 1424,
  "base</w>": 1425,
  "contact</w>": 1426,
  "platelet</w>": 1427,
  "prognostic</w>": 1428,
  "ol</w>": 1429,
  "RT</w>": 1430,
  "membranes</w>": 1431,
  "it": 1432,
  "graft</w>": 1433,
  "urine</w>": 1434,
  "hepatitis</w>": 1435,
  "While</w>": 1436,
  "200</w>": 1437,
  "pathogenesis</w>": 1438,
  "el": 1439,
  "mixed</w>": 1440,
  "spatial</w>": 1441,
  "successful</w>": 1442,
  "obesity</w>": 1443,
  "manner</w>": 1444,
  "aspects</w>": 1445,
  "43</w>": 1446,
  "abnormal</w>": 1447,
  "completed</w>": 1448,
  "w": 1449,
  "molecule</w>": 1450,
  "nature</w>": 1451,
  "differential</w>": 1452,
  "systematic</w>": 1453,
  "post": 1454,
  "HR</w>": 1455,
  "ts</w>": 1456,
  "roles</w>": 1457,
  "peptides</w>": 1458,
  "gel</w>": 1459,
  "reducing</w>": 1460,
  "From</w>": 1461,
  "collagen</w>": 1462,
  "joint</w>": 1463,
  "divided</w>": 1464,
  "alterations</w>": 1465,
  "become</w>": 1466,
  "altered</w>": 1467,
  "implications</w>": 1468,
  "marrow</w>": 1469,
  "W</w>": 1470,
  "matched</w>": 1471,
  "now</w>": 1472,
  "frequent</w>": 1473,
  "questionnaire</w>": 1474,
  "dietary</w>": 1475,
  "nucleus</w>": 1476,
  "benefit</w>": 1477,
  "≥</w>": 1478,
  "trauma</w>": 1479,
  "white</w>": 1480,
  "metastasis</w>": 1481,
  "eye</w>": 1482,
  "challenge</w>": 1483,
  "expected</w>": 1484,
  "Most</w>": 1485,
  "protocol</w>": 1486,
  "ul": 1487,
  "determination</w>": 1488,
  "ray</w>": 1489,
  "predictive</w>": 1490,
  "Na</w>": 1491,
  "cord</w>": 1492,
  "difficult</w>": 1493,
  "origin</w>": 1494,
  "conclusion</w>": 1495,
  "widely</w>": 1496,
  "characterization</w>": 1497,
  "relationships</w>": 1498,
  "nine</w>": 1499,
  "conclude</w>": 1500,
  "living</w>": 1501,
  "lymph</w>": 1502,
  "dynamic</w>": 1503,
  "v</w>": 1504,
  "interest</w>": 1505,
  "ex": 1506,
  "mM</w>": 1507,
  "certain</w>": 1508,
  "detect</w>": 1509,
  "US</w>": 1510,
  "yl": 1511,
  "medicine</w>": 1512,
  "transition</w>": 1513,
  "&amp;</w>": 1514,
  "NO</w>": 1515,
  "z": 1516,
  "gender</w>": 1517,
  "access</w>": 1518,
  "variable</w>": 1519,
  "39</w>": 1520,
  "neuro": 1521,
  "cortical</w>": 1522,
  "sectional</w>": 1523,
  "global</w>": 1524,
  "sexual</w>": 1525,
  "space</w>": 1526,
  "AT</w>": 1527,
  "id": 1528,
  "tumour</w>": 1529,
  "ultrasound</w>": 1530,
  "44</w>": 1531,
  "classification</w>": 1532,
  "plus</w>": 1533,
  "polymerase</w>": 1534,
  "elements</w>": 1535,
  "appear</w>": 1536,
  "Q": 1537,
  "fed</w>": 1538,
  "macrophages</w>": 1539,
  "organic</w>": 1540,
  "4.": 1541,
  "toward</w>": 1542,
  "air</w>": 1543,
  "context</w>": 1544,
  "recognition</w>": 1545,
  "evolution</w>": 1546,
  "impaired</w>": 1547,
  "ti": 1548,
  "external</w>": 1549,
  "core</w>": 1550,
  "successfully</w>": 1551,
  "impairment</w>": 1552,
  "fusion</w>": 1553,
  "leads</w>": 1554,
  "ovarian</w>": 1555,
  "consecutive</w>": 1556,
  "dogs</w>": 1557,
  "nm</w>": 1558,
  "diameter</w>": 1559,
  "usually</w>": 1560,
  "vaccine</w>": 1561,
  "solid</w>": 1562,
  "recurrent</w>": 1563,
  "around</w>": 1564,
  "here</w>": 1565,
  "predict</w>": 1566,
  "operative</w>": 1567,
  "appeared</w>": 1568,
  "methyl</w>": 1569,
  "anxiety</w>": 1570,
  "requires</w>": 1571,
  "recombinant</w>": 1572,
  "occurrence</w>": 1573,
  "41</w>": 1574,
  "constant</w>": 1575,
  "ag": 1576,
  "46</w>": 1577,
  "ins</w>": 1578,
  "near</w>": 1579,
  "e.g.</w>": 1580,
  "making</w>": 1581,
  "statistical</w>": 1582,
  "potent</w>": 1583,
  "members</w>": 1584,
  "Despite</w>": 1585,
  "New</w>": 1586,
  "domains</w>": 1587,
  "clear</w>": 1588,
  "generally</w>": 1589,
  "force</w>": 1590,
  "0": 1591,
  "rapidly</w>": 1592,
  "19": 1593,
  "center</w>": 1594,
  "ur": 1595,
  "infarction</w>": 1596,
  "comparable</w>": 1597,
  "en</w>": 1598,
  "throughout</w>": 1599,
  "media</w>": 1600,
  "Z</w>": 1601,
  "units</w>": 1602,
  "plays</w>": 1603,
  "asthma</w>": 1604,
  "setting</w>": 1605,
  "High</w>": 1606,
  "promising</w>": 1607,
  "52</w>": 1608,
  "Finally</w>": 1609,
  "0.1</w>": 1610,
  "IFN</w>": 1611,
  "particles</w>": 1612,
  "organ</w>": 1613,
  "x": 1614,
  "biochemical</w>": 1615,
  "compound</w>": 1616,
  "ligand</w>": 1617,
  "si": 1618,
  "behavioral</w>": 1619,
  "Effects</w>": 1620,
  "spectrum</w>": 1621,
  "signs</w>": 1622,
  "device</w>": 1623,
  "adjusted</w>": 1624,
  "protective</w>": 1625,
  "remain</w>": 1626,
  "sequencing</w>": 1627,
  "il": 1628,
  "ischemia</w>": 1629,
  "67</w>": 1630,
  "venous</w>": 1631,
  "needs</w>": 1632,
  "metastatic</w>": 1633,
  "profiles</w>": 1634,
  "antigens</w>": 1635,
  "cancers</w>": 1636,
  "per": 1637,
  "currently</w>": 1638,
  "injuries</w>": 1639,
  "absorption</w>": 1640,
  "1.5</w>": 1641,
  "associations</w>": 1642,
  "odds</w>": 1643,
  "explore</w>": 1644,
  "targets</w>": 1645,
  "pediatric</w>": 1646,
  "decision</w>": 1647,
  "47</w>": 1648,
  "fully</w>": 1649,
  "fracture</w>": 1650,
  "respect</w>": 1651,
  "ab": 1652,
  "heat</w>": 1653,
  "eyes</w>": 1654,
  "guidelines</w>": 1655,
  "states</w>": 1656,
  "differ</w>": 1657,
  "leukemia</w>": 1658,
  "--": 1659,
  "characteristic</w>": 1660,
  "bladder</w>": 1661,
  "bi": 1662,
  "marked</w>": 1663,
  "ischemic</w>": 1664,
  "variability</w>": 1665,
  "distal</w>": 1666,
  "Effect</w>": 1667,
  "trans": 1668,
  "defects</w>": 1669,
  "ant</w>": 1670,
  "neck</w>": 1671,
  "experienced</w>": 1672,
  "computed</w>": 1673,
  "protection</w>": 1674,
  "root</w>": 1675,
  "represent</w>": 1676,
  "targeted</w>": 1677,
  "down</w>": 1678,
  "programs</w>": 1679,
  "costs</w>": 1680,
  "minutes</w>": 1681,
  "64</w>": 1682,
  "completely</w>": 1683,
  "signals</w>": 1684,
  "safe</w>": 1685,
  "noted</w>": 1686,
  "location</w>": 1687,
  "another</w>": 1688,
  "presentation</w>": 1689,
  "tolerance</w>": 1690,
  "necrosis</w>": 1691,
  "allows</w>": 1692,
  "subunit</w>": 1693,
  "past</w>": 1694,
  "thickness</w>": 1695,
  "specifically</w>": 1696,
  "intravenous</w>": 1697,
  "superior</w>": 1698,
  "almost</w>": 1699,
  "adhesion</w>": 1700,
  "dental</w>": 1701,
  "MR</w>": 1702,
  "basic</w>": 1703,
  "nervous</w>": 1704,
  "morphology</w>": 1705,
  "f</w>": 1706,
  "Since</w>": 1707,
  "spontaneous</w>": 1708,
  "ph": 1709,
  "finding</w>": 1710,
  "susceptibility</w>": 1711,
  "inhibit</w>": 1712,
  "oxidation</w>": 1713,
  "RA</w>": 1714,
  "probably</w>": 1715,
  "es": 1716,
  "ase</w>": 1717,
  "observations</w>": 1718,
  "Re": 1719,
  "bleeding</w>": 1720,
  "intact</w>": 1721,
  "ratios</w>": 1722,
  "Twenty</w>": 1723,
  "CSF</w>": 1724,
  "accurate</w>": 1725,
  "families</w>": 1726,
  "contained</w>": 1727,
  "recommended</w>": 1728,
  "apparent</w>": 1729,
  "numbers</w>": 1730,
  "CD4</w>": 1731,
  "preparation</w>": 1732,
  "fibrosis</w>": 1733,
  "therapies</w>": 1734,
  "retinal</w>": 1735,
  "account</w>": 1736,
  "56</w>": 1737,
  "85</w>": 1738,
  "situ</w>": 1739,
  "12": 1740,
  "gas</w>": 1741,
  "movement</w>": 1742,
  "Chinese</w>": 1743,
  "3H</w>": 1744,
  "towards</w>": 1745,
  "American</w>": 1746,
  "motion</w>": 1747,
  "adolescents</w>": 1748,
  "theory</w>": 1749,
  "middle</w>": 1750,
  "endogenous</w>": 1751,
  "technology</w>": 1752,
  "ad": 1753,
  "indicates</w>": 1754,
  "mode</w>": 1755,
  "54</w>": 1756,
  "optical</w>": 1757,
  "extraction</w>": 1758,
  "donor</w>": 1759,
  "pathological</w>": 1760,
  "ally</w>": 1761,
  "discuss</w>": 1762,
  "employed</w>": 1763,
  "sources</w>": 1764,
  "despite</w>": 1765,
  "success</w>": 1766,
  "traditional</w>": 1767,
  "2.5</w>": 1768,
  "search</w>": 1769,
  "ar</w>": 1770,
  "PA</w>": 1771,
  "yield</w>": 1772,
  "final</w>": 1773,
  "reconstruction</w>": 1774,
  "localization</w>": 1775,
  "multi": 1776,
  "j": 1777,
  "understand</w>": 1778,
  "atrial</w>": 1779,
  "labeled</w>": 1780,
  "prolonged</w>": 1781,
  "block</w>": 1782,
  "feeding</w>": 1783,
  "variants</w>": 1784,
  "BP</w>": 1785,
  "until</w>": 1786,
  "et": 1787,
  "Cancer</w>": 1788,
  "preoperative</w>": 1789,
  "nursing</w>": 1790,
  "emergency</w>": 1791,
  "ec": 1792,
  "monoclonal</w>": 1793,
  "Hospital</w>": 1794,
  "delayed</w>": 1795,
  "make</w>": 1796,
  "physicians</w>": 1797,
  "channels</w>": 1798,
  "CA": 1799,
  "51</w>": 1800,
  "extract</w>": 1801,
  "require</w>": 1802,
  "estimate</w>": 1803,
  "Escherichia</w>": 1804,
  "kDa</w>": 1805,
  "randomly</w>": 1806,
  "ans</w>": 1807,
  "analysed</w>": 1808,
  "synthesized</w>": 1809,
  "soil</w>": 1810,
  "58</w>": 1811,
  "benefits</w>": 1812,
  "de</w>": 1813,
  "developmental</w>": 1814,
  "proximal</w>": 1815,
  "targeting</w>": 1816,
  "medication</w>": 1817,
  "fractures</w>": 1818,
  "stimuli</w>": 1819,
  "enhance</w>": 1820,
  "p53</w>": 1821,
  "United</w>": 1822,
  "knee</w>": 1823,
  "home</w>": 1824,
  "3D</w>": 1825,
  "experiment</w>": 1826,
  "53</w>": 1827,
  "u</w>": 1828,
  "node</w>": 1829,
  "Overall</w>": 1830,
  "ethanol</w>": 1831,
  "ER</w>": 1832,
  "invasion</w>": 1833,
  "meta</w>": 1834,
  "replication</w>": 1835,
  "IgG</w>": 1836,
  "63</w>": 1837,
  "complication</w>": 1838,
  "replacement</w>": 1839,
  "genomic</w>": 1840,
  "57</w>": 1841,
  "soluble</w>": 1842,
  "off</w>": 1843,
  "bilateral</w>": 1844,
  "aging</w>": 1845,
  "spectroscopy</w>": 1846,
  "find</w>": 1847,
  "whose</w>": 1848,
  "nucleotide</w>": 1849,
  "intermediate</w>": 1850,
  "vein</w>": 1851,
  "antibiotic</w>": 1852,
  "school</w>": 1853,
  "choice</w>": 1854,
  "synthetic</w>": 1855,
  "classified</w>": 1856,
  "issues</w>": 1857,
  "MATERIALS</w>": 1858,
  "allow</w>": 1859,
  "antagonist</w>": 1860,
  "mutants</w>": 1861,
  "seems</w>": 1862,
  "skeletal</w>": 1863,
  "deficient</w>": 1864,
  "oil</w>": 1865,
  "event</w>": 1866,
  "bio": 1867,
  "milk</w>": 1868,
  "49</w>": 1869,
  "59</w>": 1870,
  "curve</w>": 1871,
  "National</w>": 1872,
  "every</w>": 1873,
  "providing</w>": 1874,
  "Al": 1875,
  "AP</w>": 1876,
  "perfusion</w>": 1877,
  "neonatal</w>": 1878,
  "initiation</w>": 1879,
  "viruses</w>": 1880,
  "possibility</w>": 1881,
  "close</w>": 1882,
  "benign</w>": 1883,
  "Because</w>": 1884,
  "nor</w>": 1885,
  "progressive</w>": 1886,
  "existing</w>": 1887,
  "growing</w>": 1888,
  "transient</w>": 1889,
  "distance</w>": 1890,
  "ob": 1891,
  "HLA</w>": 1892,
  "BMI</w>": 1893,
  "ages</w>": 1894,
  "added</w>": 1895,
  "lymphoma</w>": 1896,
  "exchange</w>": 1897,
  "micrograms</w>": 1898,
  "concluded</w>": 1899,
  "maintenance</w>": 1900,
  "routine</w>": 1901,
  "metabolites</w>": 1902,
  "recognized</w>": 1903,
  "Recent</w>": 1904,
  "re</w>": 1905,
  "presenting</w>": 1906,
  "Pro": 1907,
  "over": 1908,
  "extensive</w>": 1909,
  "fish</w>": 1910,
  "shock</w>": 1911,
  "multi</w>": 1912,
  "unclear</w>": 1913,
  "PC</w>": 1914,
  "hydrogen</w>": 1915,
  "markedly</w>": 1916,
  "irradiation</w>": 1917,
  "angle</w>": 1918,
  "repeated</w>": 1919,
  "illness</w>": 1920,
  "injected</w>": 1921,
  "maximal</w>": 1922,
  "az": 1923,
  "done</w>": 1924,
  "diversity</w>": 1925,
  "62</w>": 1926,
  "fibers</w>": 1927,
  "failed</w>": 1928,
  "OS</w>": 1929,
  "observation</w>": 1930,
  "enrolled</w>": 1931,
  "great</w>": 1932,
  "61</w>": 1933,
  "bovine</w>": 1934,
  "radical</w>": 1935,
  "regional</w>": 1936,
  "varied</w>": 1937,
  "ring</w>": 1938,
  "osis</w>": 1939,
  "18": 1940,
  "January</w>": 1941,
  "agreement</w>": 1942,
  "tyrosine</w>": 1943,
  "primarily</w>": 1944,
  "encoding</w>": 1945,
  "hip</w>": 1946,
  "pathology</w>": 1947,
  "hospitals</w>": 1948,
  "66</w>": 1949,
  "gastrointestinal</w>": 1950,
  "localized</w>": 1951,
  "Ps</w>": 1952,
  "discharge</w>": 1953,
  "valve</w>": 1954,
  "An": 1955,
  "amine</w>": 1956,
  "view</w>": 1957,
  "fast</w>": 1958,
  "prediction</w>": 1959,
  "smooth</w>": 1960,
  "SS</w>": 1961,
  "excellent</w>": 1962,
  "colon</w>": 1963,
  "smaller</w>": 1964,
  "random</w>": 1965,
  "reliable</w>": 1966,
  "identical</w>": 1967,
  "wound</w>": 1968,
  "Human</w>": 1969,
  "occurring</w>": 1970,
  "sensory</w>": 1971,
  "coupled</w>": 1972,
  "metastases</w>": 1973,
  "68</w>": 1974,
  "periods</w>": 1975,
  "showing</w>": 1976,
  "gain</w>": 1977,
  "minimal</w>": 1978,
  "communication</w>": 1979,
  "ous</w>": 1980,
  "colorectal</w>": 1981,
  "ST</w>": 1982,
  "partially</w>": 1983,
  "arthritis</w>": 1984,
  "typical</w>": 1985,
  "induces</w>": 1986,
  "challenges</w>": 1987,
  "cytokines</w>": 1988,
  "childhood</w>": 1989,
  "propose</w>": 1990,
  "ae</w>": 1991,
  "13": 1992,
  "maintained</w>": 1993,
  "what</w>": 1994,
  "psychological</w>": 1995,
  "amounts</w>": 1996,
  "tools</w>": 1997,
  "1.0</w>": 1998,
  "healing</w>": 1999,
  "suitable</w>": 2000,
  "96</w>": 2001,
  "devices</w>": 2002,
  "end": 2003,
  "below</w>": 2004,
  "working</w>": 2005,
  "others</w>": 2006,
  "acquired</w>": 2007,
  "AC": 2008,
  "threshold</w>": 2009,
  "date</w>": 2010,
  "LPS</w>": 2011,
  "ent</w>": 2012,
  "intervals</w>": 2013,
  "NF</w>": 2014,
  "tic</w>": 2015,
  "Only</w>": 2016,
  "transcriptional</w>": 2017,
  "place</w>": 2018,
  "rich</w>": 2019,
  "murine</w>": 2020,
  "subject</w>": 2021,
  "service</w>": 2022,
  "0.0001</w>": 2023,
  "suppression</w>": 2024,
  "derivatives</w>": 2025,
  "th": 2026,
  "promote</w>": 2027,
  "behaviors</w>": 2028,
  "shift</w>": 2029,
  "rise</w>": 2030,
  "implementation</w>": 2031,
  "thermal</w>": 2032,
  "probe</w>": 2033,
  "pregnant</w>": 2034,
  "Western</w>": 2035,
  "tuberculosis</w>": 2036,
  "id</w>": 2037,
  "OH</w>": 2038,
  "deep</w>": 2039,
  "250</w>": 2040,
  "except</w>": 2041,
  "healthcare</w>": 2042,
  "sufficient</w>": 2043,
  "nanoparticles</w>": 2044,
  "-0.": 2045,
  "PA": 2046,
  "ST": 2047,
  "con": 2048,
  "treat</w>": 2049,
  "Co": 2050,
  "framework</w>": 2051,
  "histological</w>": 2052,
  "ranged</w>": 2053,
  "extracted</w>": 2054,
  "methyl": 2055,
  "States</w>": 2056,
  "fiber</w>": 2057,
  "workers</w>": 2058,
  "native</w>": 2059,
  "interleukin</w>": 2060,
  "EC</w>": 2061,
  "wave</w>": 2062,
  "ms</w>": 2063,
  "muscles</w>": 2064,
  "died</w>": 2065,
  "velocity</w>": 2066,
  "database</w>": 2067,
  "CA</w>": 2068,
  "dominant</w>": 2069,
  "Several</w>": 2070,
  "records</w>": 2071,
  "actin</w>": 2072,
  "5.": 2073,
  "*</w>": 2074,
  "intensive</w>": 2075,
  "71</w>": 2076,
  "closely</w>": 2077,
  "dopamine</w>": 2078,
  "far</w>": 2079,
  "balance</w>": 2080,
  "transplant</w>": 2081,
  "focused</w>": 2082,
  "China</w>": 2083,
  "directed</w>": 2084,
  "·</w>": 2085,
  "shape</w>": 2086,
  "producing</w>": 2087,
  "reverse</w>": 2088,
  "psychiatric</w>": 2089,
  "arteries</w>": 2090,
  "variations</w>": 2091,
  "ox": 2092,
  "mon": 2093,
  "persons</w>": 2094,
  "soft</w>": 2095,
  "latter</w>": 2096,
  "achieve</w>": 2097,
  "matter</w>": 2098,
  "69</w>": 2099,
  "parents</w>": 2100,
  "CD</w>": 2101,
  "vessels</w>": 2102,
  "17": 2103,
  "expressing</w>": 2104,
  "serious</w>": 2105,
  "14": 2106,
  "airway</w>": 2107,
  "slow</w>": 2108,
  "hundred</w>": 2109,
  "analyze</w>": 2110,
  "antioxidant</w>": 2111,
  "segment</w>": 2112,
  "Scale</w>": 2113,
  "Four</w>": 2114,
  "extracts</w>": 2115,
  "decreases</w>": 2116,
  "independently</w>": 2117,
  "mammalian</w>": 2118,
  "melanoma</w>": 2119,
  "radiotherapy</w>": 2120,
  "fixed</w>": 2121,
  "nurses</w>": 2122,
  "comparing</w>": 2123,
  "78</w>": 2124,
  "congenital</w>": 2125,
  "admission</w>": 2126,
  "15": 2127,
  "rabbit</w>": 2128,
  "em": 2129,
  "load</w>": 2130,
  "defect</w>": 2131,
  "influenced</w>": 2132,
  "practices</w>": 2133,
  "Cell</w>": 2134,
  "back</w>": 2135,
  "yeast</w>": 2136,
  "2014</w>": 2137,
  "HT</w>": 2138,
  "diffusion</w>": 2139,
  "perceived</w>": 2140,
  "remaining</w>": 2141,
  "axis</w>": 2142,
  "16": 2143,
  "face</w>": 2144,
  "algorithm</w>": 2145,
  "networks</w>": 2146,
  "neurological</w>": 2147,
  "largely</w>": 2148,
  "affecting</w>": 2149,
  "morphological</w>": 2150,
  "dependence</w>": 2151,
  "coding</w>": 2152,
  "modification</w>": 2153,
  "sp": 2154,
  "toxic</w>": 2155,
  "gland</w>": 2156,
  "500</w>": 2157,
  "tr": 2158,
  "ted</w>": 2159,
  "HCV</w>": 2160,
  "2015</w>": 2161,
  "extended</w>": 2162,
  "solutions</w>": 2163,
  "comprehensive</w>": 2164,
  "improving</w>": 2165,
  "kinetics</w>": 2166,
  "sampling</w>": 2167,
  "understood</w>": 2168,
  "crucial</w>": 2169,
  "contains</w>": 2170,
  "exhibit</w>": 2171,
  "albumin</w>": 2172,
  "genotype</w>": 2173,
  "AS</w>": 2174,
  "tri": 2175,
  "ii</w>": 2176,
  "behaviour</w>": 2177,
  "diverse</w>": 2178,
  "whom</w>": 2179,
  "earlier</w>": 2180,
  "world</w>": 2181,
  "equal</w>": 2182,
  "represents</w>": 2183,
  "stimulus</w>": 2184,
  "risks</w>": 2185,
  "SP</w>": 2186,
  "enhancement</w>": 2187,
  "cl": 2188,
  "Some</w>": 2189,
  "antibiotics</w>": 2190,
  "T1</w>": 2191,
  "substantial</w>": 2192,
  "appearance</w>": 2193,
  "concept</w>": 2194,
  "slightly</w>": 2195,
  "femoral</w>": 2196,
  "cDNA</w>": 2197,
  "newly</w>": 2198,
  "ions</w>": 2199,
  "Compared</w>": 2200,
  "Ch": 2201,
  "University</w>": 2202,
  "le": 2203,
  "Mean</w>": 2204,
  "storage</w>": 2205,
  "contain</w>": 2206,
  "73</w>": 2207,
  "76</w>": 2208,
  "ogenic</w>": 2209,
  "spectrometry</w>": 2210,
  "predictors</w>": 2211,
  "establish</w>": 2212,
  "Conclusion</w>": 2213,
  "agonist</w>": 2214,
  "positively</w>": 2215,
  "measuring</w>": 2216,
  "88</w>": 2217,
  "GC</w>": 2218,
  "conserved</w>": 2219,
  "contribution</w>": 2220,
  "Medical</w>": 2221,
  "od": 2222,
  "cytokine</w>": 2223,
  "sustained</w>": 2224,
  "reveal</w>": 2225,
  "saline</w>": 2226,
  "beneficial</w>": 2227,
  "parallel</w>": 2228,
  "implant</w>": 2229,
  "decline</w>": 2230,
  "accompanied</w>": 2231,
  "84</w>": 2232,
  "address</w>": 2233,
  "pl": 2234,
  "fibroblasts</w>": 2235,
  "transformation</w>": 2236,
  "logistic</w>": 2237,
  "national</w>": 2238,
  "affects</w>": 2239,
  "act</w>": 2240,
  "adequate</w>": 2241,
  "TGF</w>": 2242,
  "83</w>": 2243,
  "74</w>": 2244,
  "organs</w>": 2245,
  "scanning</w>": 2246,
  "actions</w>": 2247,
  "describes</w>": 2248,
  "77</w>": 2249,
  "suppressed</w>": 2250,
  "cannot</w>": 2251,
  "clearance</w>": 2252,
  "Cs</w>": 2253,
  "conversion</w>": 2254,
  "band</w>": 2255,
  "consequences</w>": 2256,
  "variant</w>": 2257,
  "multivariate</w>": 2258,
  "0.2</w>": 2259,
  "HCC</w>": 2260,
  "limb</w>": 2261,
  "limit</w>": 2262,
  "82</w>": 2263,
  "PS</w>": 2264,
  "longitudinal</w>": 2265,
  "fragment</w>": 2266,
  "tions</w>": 2267,
  "chest</w>": 2268,
  "2016</w>": 2269,
  "integrated</w>": 2270,
  "consisted</w>": 2271,
  "2013</w>": 2272,
  "delta</w>": 2273,
  "modulation</w>": 2274,
  "INTRODUCTION</w>": 2275,
  "allowed</w>": 2276,
  "incubation</w>": 2277,
  "20": 2278,
  "effectively</w>": 2279,
  "poorly</w>": 2280,
  "ten</w>": 2281,
  "organisms</w>": 2282,
  "UV</w>": 2283,
  "ology</w>": 2284,
  "Studies</w>": 2285,
  "stenosis</w>": 2286,
  "arm</w>": 2287,
  "count</w>": 2288,
  "magnitude</w>": 2289,
  "element</w>": 2290,
  "electronic</w>": 2291,
  "persistent</w>": 2292,
  "estimates</w>": 2293,
  "obese</w>": 2294,
  "burden</w>": 2295,
  "fixation</w>": 2296,
  "amplitude</w>": 2297,
  "Background</w>": 2298,
  "economic</w>": 2299,
  "nitrogen</w>": 2300,
  "implantation</w>": 2301,
  "biomarkers</w>": 2302,
  "obtain</w>": 2303,
  "clearly</w>": 2304,
  "output</w>": 2305,
  "als</w>": 2306,
  "explored</w>": 2307,
  "separation</w>": 2308,
  "error</w>": 2309,
  "inhibits</w>": 2310,
  "hour</w>": 2311,
  "substrates</w>": 2312,
  "ranging</w>": 2313,
  "supported</w>": 2314,
  "depth</w>": 2315,
  "AR</w>": 2316,
  "ones</w>": 2317,
  "Additionally</w>": 2318,
  "questions</w>": 2319,
  "oid</w>": 2320,
  "presents</w>": 2321,
  "regulate</w>": 2322,
  "86</w>": 2323,
  "ene</w>": 2324,
  "polymorphism</w>": 2325,
  "92</w>": 2326,
  "example</w>": 2327,
  "ir": 2328,
  "infectious</w>": 2329,
  "explain</w>": 2330,
  "nasal</w>": 2331,
  "sections</w>": 2332,
  "clinic</w>": 2333,
  "epithelium</w>": 2334,
  "electrical</w>": 2335,
  "goal</w>": 2336,
  "PE</w>": 2337,
  "evoked</w>": 2338,
  "validated</w>": 2339,
  "carotid</w>": 2340,
  "oma</w>": 2341,
  "substance</w>": 2342,
  "CO</w>": 2343,
  "assigned</w>": 2344,
  "PET</w>": 2345,
  "capable</w>": 2346,
  "functioning</w>": 2347,
  "documented</w>": 2348,
  "reactivity</w>": 2349,
  "determining</w>": 2350,
  "reproductive</w>": 2351,
  "symptom</w>": 2352,
  "microbial</w>": 2353,
  "bowel</w>": 2354,
  "79</w>": 2355,
  "poly</w>": 2356,
  "adherence</w>": 2357,
  "pulse</w>": 2358,
  "residual</w>": 2359,
  "cyclic</w>": 2360,
  "mothers</w>": 2361,
  "facilitate</w>": 2362,
  "ization</w>": 2363,
  "satisfaction</w>": 2364,
  "81</w>": 2365,
  "sperm</w>": 2366,
  "fractions</w>": 2367,
  "introduced</w>": 2368,
  "computer</w>": 2369,
  "minor</w>": 2370,
  "occlusion</w>": 2371,
  "adenosine</w>": 2372,
  "assisted</w>": 2373,
  "Serum</w>": 2374,
  "salt</w>": 2375,
  "surfaces</w>": 2376,
  "placed</w>": 2377,
  "bile</w>": 2378,
  "AP": 2379,
  "noise</w>": 2380,
  "Comparison</w>": 2381,
  "120</w>": 2382,
  "deaths</w>": 2383,
  "systolic</w>": 2384,
  "correlations</w>": 2385,
  "hr</w>": 2386,
  "resources</w>": 2387,
  "anesthesia</w>": 2388,
  "pituitary</w>": 2389,
  "confirm</w>": 2390,
  "his</w>": 2391,
  "circulating</w>": 2392,
  "IR</w>": 2393,
  "hypoxia</w>": 2394,
  "par": 2395,
  "rehabilitation</w>": 2396,
  "0.0": 2397,
  "crystal</w>": 2398,
  "emission</w>": 2399,
  "AT": 2400,
  "89</w>": 2401,
  "us": 2402,
  "LDL</w>": 2403,
  "99</w>": 2404,
  "displayed</w>": 2405,
  "thought</w>": 2406,
  "assembly</w>": 2407,
  "called</w>": 2408,
  "hearing</w>": 2409,
  "300</w>": 2410,
  "vector</w>": 2411,
  "mellitus</w>": 2412,
  "ide</w>": 2413,
  "str": 2414,
  "fragments</w>": 2415,
  "lymphocyte</w>": 2416,
  "deletion</w>": 2417,
  "younger</w>": 2418,
  "87</w>": 2419,
  "cent</w>": 2420,
  "reliability</w>": 2421,
  "Evaluation</w>": 2422,
  "ELISA</w>": 2423,
  "admitted</w>": 2424,
  "toxin</w>": 2425,
  "users</w>": 2426,
  "sulfate</w>": 2427,
  "allele</w>": 2428,
  "mol</w>": 2429,
  "li": 2430,
  "serve</w>": 2431,
  "og": 2432,
  "validity</w>": 2433,
  "estrogen</w>": 2434,
  "AR": 2435,
  "planning</w>": 2436,
  "excretion</w>": 2437,
  "emotional</w>": 2438,
  "HA</w>": 2439,
  "dual</w>": 2440,
  "settings</w>": 2441,
  "forming</w>": 2442,
  "endoscopic</w>": 2443,
  "ator</w>": 2444,
  "investigations</w>": 2445,
  "European</w>": 2446,
  "pigs</w>": 2447,
  "ED</w>": 2448,
  "catheter</w>": 2449,
  "SC": 2450,
  "coefficient</w>": 2451,
  "utilization</w>": 2452,
  "height</w>": 2453,
  "methylation</w>": 2454,
  "schizophrenia</w>": 2455,
  "hybridization</w>": 2456,
  "98</w>": 2457,
  "possibly</w>": 2458,
  "cluster</w>": 2459,
  "recommendations</w>": 2460,
  "cytotoxic</w>": 2461,
  "dementia</w>": 2462,
  "trend</w>": 2463,
  "0.3</w>": 2464,
  "93</w>": 2465,
  "2012</w>": 2466,
  "ne": 2467,
  "acetate</w>": 2468,
  "removed</w>": 2469,
  "0.02</w>": 2470,
  "restricted</w>": 2471,
  "mature</w>": 2472,
  "organization</w>": 2473,
  "Alzheimer</w>": 2474,
  "zinc</w>": 2475,
  "ed": 2476,
  "super": 2477,
  "stay</w>": 2478,
  "cAMP</w>": 2479,
  "isolation</w>": 2480,
  "tube</w>": 2481,
  "treating</w>": 2482,
  "synaptic</w>": 2483,
  "aqueous</w>": 2484,
  "characterize</w>": 2485,
  "retention</w>": 2486,
  "94</w>": 2487,
  "2000</w>": 2488,
  "qualitative</w>": 2489,
  "AF</w>": 2490,
  "detailed</w>": 2491,
  "vaccination</w>": 2492,
  "ME": 2493,
  "dehydrogenase</w>": 2494,
  "aims</w>": 2495,
  "fluorescent</w>": 2496,
  "inclusion</w>": 2497,
  "controlling</w>": 2498,
  "Con": 2499,
  "receive</w>": 2500,
  "CS</w>": 2501,
  "subjected</w>": 2502,
  "pharmacological</w>": 2503,
  "frequencies</w>": 2504,
  "gradient</w>": 2505,
  "blocked</w>": 2506,
  "intra</w>": 2507,
  "particle</w>": 2508,
  "nodes</w>": 2509,
  "IGF</w>": 2510,
  "phosphatase</w>": 2511,
  "hybrid</w>": 2512,
  "demonstrates</w>": 2513,
  "z</w>": 2514,
  "ata</w>": 2515,
  "perform</w>": 2516,
  "synthase</w>": 2517,
  "delay</w>": 2518,
  "broad</w>": 2519,
  "×</w>": 2520,
  "cytochrome</w>": 2521,
  "PT": 2522,
  "me": 2523,
  "simultaneously</w>": 2524,
  "suspected</w>": 2525,
  "considerable</w>": 2526,
  "P1</w>": 2527,
  "pairs</w>": 2528,
  "91</w>": 2529,
  "immediately</w>": 2530,
  "separate</w>": 2531,
  "facial</w>": 2532,
  "varying</w>": 2533,
  "potentials</w>": 2534,
  "Di": 2535,
  "feature</w>": 2536,
  "6.": 2537,
  "regulating</w>": 2538,
  "SC</w>": 2539,
  "ly</w>": 2540,
  "Disease</w>": 2541,
  "fact</w>": 2542,
  "ter": 2543,
  "catalytic</w>": 2544,
  "language</w>": 2545,
  "Thirty</w>": 2546,
  "AA</w>": 2547,
  "Research</w>": 2548,
  "ite</w>": 2549,
  "CH": 2550,
  "woman</w>": 2551,
  "SE</w>": 2552,
  "medial</w>": 2553,
  "barrier</w>": 2554,
  "electro": 2555,
  "scan</w>": 2556,
  "1.2</w>": 2557,
  "reached</w>": 2558,
  "speed</w>": 2559,
  "availability</w>": 2560,
  "obstruction</w>": 2561,
  "symptomatic</w>": 2562,
  "NMR</w>": 2563,
  "immunity</w>": 2564,
  "blot</w>": 2565,
  "experiences</w>": 2566,
  "blind</w>": 2567,
  "OF</w>": 2568,
  "Hg</w>": 2569,
  "bond</w>": 2570,
  "AD": 2571,
  "ically</w>": 2572,
  "assessing</w>": 2573,
  "locus</w>": 2574,
  "A1</w>": 2575,
  "background</w>": 2576,
  "differentiated</w>": 2577,
  "ative</w>": 2578,
  "rural</w>": 2579,
  "infant</w>": 2580,
  "interferon</w>": 2581,
  "150</w>": 2582,
  "original</w>": 2583,
  "aggregation</w>": 2584,
  "special</w>": 2585,
  "comparative</w>": 2586,
  "driven</w>": 2587,
  "reduces</w>": 2588,
  "DA</w>": 2589,
  "Expression</w>": 2590,
  "th</w>": 2591,
  "embryos</w>": 2592,
  "perception</w>": 2593,
  "bias</w>": 2594,
  "zone</w>": 2595,
  "numerous</w>": 2596,
  "embryonic</w>": 2597,
  "ig": 2598,
  "antimicrobial</w>": 2599,
  "bypass</w>": 2600,
  "nuclei</w>": 2601,
  "taking</w>": 2602,
  "spectra</w>": 2603,
  "400</w>": 2604,
  "sera</w>": 2605,
  "esophageal</w>": 2606,
  "O2</w>": 2607,
  "97</w>": 2608,
  "More</w>": 2609,
  "sh": 2610,
  "physician</w>": 2611,
  "cycles</w>": 2612,
  "TB</w>": 2613,
  "heavy</w>": 2614,
  "segments</w>": 2615,
  "probability</w>": 2616,
  "equivalent</w>": 2617,
  "proved</w>": 2618,
  "tumours</w>": 2619,
  "changed</w>": 2620,
  "Many</w>": 2621,
  "includes</w>": 2622,
  "retrospectively</w>": 2623,
  "nitric</w>": 2624,
  "lipoprotein</w>": 2625,
  "mucosa</w>": 2626,
  "involves</w>": 2627,
  "Ex": 2628,
  "phenomenon</w>": 2629,
  "RE": 2630,
  "own</w>": 2631,
  "Fe</w>": 2632,
  "CP</w>": 2633,
  "heterogeneity</w>": 2634,
  "preparations</w>": 2635,
  "articles</w>": 2636,
  "demographic</w>": 2637,
  "released</w>": 2638,
  "skills</w>": 2639,
  "dorsal</w>": 2640,
  "glutamate</w>": 2641,
  "explained</w>": 2642,
  "modeling</w>": 2643,
  "prevented</w>": 2644,
  "viability</w>": 2645,
  "7.": 2646,
  "GH</w>": 2647,
  "LC</w>": 2648,
  "subsequently</w>": 2649,
  "causing</w>": 2650,
  "coupling</w>": 2651,
  "ological</w>": 2652,
  "electrophoresis</w>": 2653,
  "ent": 2654,
  "progress</w>": 2655,
  "Five</w>": 2656,
  "lowest</w>": 2657,
  "rest</w>": 2658,
  "AIM</w>": 2659,
  "CO": 2660,
  "angiography</w>": 2661,
  "mo": 2662,
  "reporting</w>": 2663,
  "restriction</w>": 2664,
  "Cu</w>": 2665,
  "ventilation</w>": 2666,
  "pig</w>": 2667,
  "attenuated</w>": 2668,
  "adjacent</w>": 2669,
  "theoretical</w>": 2670,
  "simulation</w>": 2671,
  "cytoplasmic</w>": 2672,
  "fields</w>": 2673,
  "PI</w>": 2674,
  "Participants</w>": 2675,
  "disability</w>": 2676,
  "ET</w>": 2677,
  "implicated</w>": 2678,
  "African</w>": 2679,
  "immediate</w>": 2680,
  "RR</w>": 2681,
  "influenza</w>": 2682,
  "amide</w>": 2683,
  "ized</w>": 2684,
  "AC</w>": 2685,
  "urban</w>": 2686,
  "St": 2687,
  "policy</w>": 2688,
  "Early</w>": 2689,
  "identifying</w>": 2690,
  "polymer</w>": 2691,
  "December</w>": 2692,
  "kinetic</w>": 2693,
  ".001</w>": 2694,
  "regard</w>": 2695,
  "distributed</w>": 2696,
  "AL": 2697,
  "steroid</w>": 2698,
  "efforts</w>": 2699,
  "adenocarcinoma</w>": 2700,
  "sp</w>": 2701,
  "sub</w>": 2702,
  "ases</w>": 2703,
  "HPV</w>": 2704,
  "untreated</w>": 2705,
  "detectable</w>": 2706,
  "recruited</w>": 2707,
  "microg</w>": 2708,
  "volunteers</w>": 2709,
  "dialysis</w>": 2710,
  "squamous</w>": 2711,
  "minimum</w>": 2712,
  "Type</w>": 2713,
  "initially</w>": 2714,
  "hemorrhage</w>": 2715,
  "limitations</w>": 2716,
  "q": 2717,
  "traits</w>": 2718,
  "uses</w>": 2719,
  "reperfusion</w>": 2720,
  "depressive</w>": 2721,
  "staff</w>": 2722,
  "fever</w>": 2723,
  "lo": 2724,
  "referred</w>": 2725,
  "Conclusions</w>": 2726,
  "vesicles</w>": 2727,
  "direction</w>": 2728,
  "w</w>": 2729,
  "feedback</w>": 2730,
  "constructed</w>": 2731,
  "po": 2732,
  "cartilage</w>": 2733,
  "adaptation</w>": 2734,
  "CR": 2735,
  "Micro": 2736,
  "steps</w>": 2737,
  "laparoscopic</w>": 2738,
  "TR": 2739,
  "ip": 2740,
  "alter</w>": 2741,
  "composed</w>": 2742,
  "acting</w>": 2743,
  "entire</w>": 2744,
  "um": 2745,
  "rabbits</w>": 2746,
  "my": 2747,
  "autoimmune</w>": 2748,
  "sinus</w>": 2749,
  "once</w>": 2750,
  "bind</w>": 2751,
  "monitored</w>": 2752,
  "composite</w>": 2753,
  "mitochondria</w>": 2754,
  "ep": 2755,
  "chloride</w>": 2756,
  "sets</w>": 2757,
  "ography</w>": 2758,
  "centers</w>": 2759,
  "advantages</w>": 2760,
  "SA</w>": 2761,
  "concerning</w>": 2762,
  "fl": 2763,
  "elevation</w>": 2764,
  "South</w>": 2765,
  "2.0</w>": 2766,
  "evaluating</w>": 2767,
  "Acute</w>": 2768,
  "potassium</w>": 2769,
  "spleen</w>": 2770,
  "uterine</w>": 2771,
  "ter</w>": 2772,
  "expansion</w>": 2773,
  "collection</w>": 2774,
  "1.1</w>": 2775,
  "shorter</w>": 2776,
  "mixture</w>": 2777,
  "putative</w>": 2778,
  "simultaneous</w>": 2779,
  "predominantly</w>": 2780,
  "became</w>": 2781,
  "LV</w>": 2782,
  "advances</w>": 2783,
  "standardized</w>": 2784,
  "exist</w>": 2785,
  "insertion</w>": 2786,
  "PR</w>": 2787,
  "thereby</w>": 2788,
  "injections</w>": 2789,
  "consisting</w>": 2790,
  "hypertensive</w>": 2791,
  "epilepsy</w>": 2792,
  "PC": 2793,
  "ocular</w>": 2794,
  "thoracic</w>": 2795,
  "regimen</w>": 2796,
  "En": 2797,
  "overexpression</w>": 2798,
  "susceptible</w>": 2799,
  "adrenal</w>": 2800,
  "biology</w>": 2801,
  "recipients</w>": 2802,
  "cleavage</w>": 2803,
  "DS</w>": 2804,
  "0.4</w>": 2805,
  "phases</w>": 2806,
  "SI": 2807,
  "De": 2808,
  "carcinomas</w>": 2809,
  "tive</w>": 2810,
  "loading</w>": 2811,
  "relaxation</w>": 2812,
  "donors</w>": 2813,
  "depending</w>": 2814,
  "though</w>": 2815,
  "traumatic</w>": 2816,
  "PL": 2817,
  "PO": 2818,
  "Each</w>": 2819,
  "ligands</w>": 2820,
  "opioid</w>": 2821,
  "qu": 2822,
  "AIDS</w>": 2823,
  "extension</w>": 2824,
  "cavity</w>": 2825,
  "negatively</w>": 2826,
  "Blood</w>": 2827,
  "vessel</w>": 2828,
  "contraction</w>": 2829,
  "vi": 2830,
  "integration</w>": 2831,
  "episodes</w>": 2832,
  "extremely</w>": 2833,
  "depends</w>": 2834,
  "glutathione</w>": 2835,
  "ium</w>": 2836,
  "te": 2837,
  "cutaneous</w>": 2838,
  "diastolic</w>": 2839,
  "complement</w>": 2840,
  "bearing</w>": 2841,
  "os</w>": 2842,
  "pretreatment</w>": 2843,
  "SP": 2844,
  "practical</w>": 2845,
  "mis": 2846,
  "ill</w>": 2847,
  "maturation</w>": 2848,
  "variance</w>": 2849,
  "peritoneal</w>": 2850,
  "angiotensin</w>": 2851,
  "utilized</w>": 2852,
  "mapping</w>": 2853,
  "tasks</w>": 2854,
  "generate</w>": 2855,
  "Following</w>": 2856,
  "polymorphisms</w>": 2857,
  "cytotoxicity</w>": 2858,
  "grown</w>": 2859,
  "EEG</w>": 2860,
  "sc": 2861,
  "pathogens</w>": 2862,
  "Children</w>": 2863,
  "spine</w>": 2864,
  "1.3</w>": 2865,
  "recovered</w>": 2866,
  "plasmid</w>": 2867,
  "mucosal</w>": 2868,
  "ings</w>": 2869,
  "define</w>": 2870,
  "VEGF</w>": 2871,
  "utility</w>": 2872,
  "PR": 2873,
  "hydroxy": 2874,
  "If</w>": 2875,
  "surveillance</w>": 2876,
  "regeneration</w>": 2877,
  "loop</w>": 2878,
  "personal</w>": 2879,
  "curves</w>": 2880,
  "pathogenic</w>": 2881,
  "Is</w>": 2882,
  "deposition</w>": 2883,
  "Such</w>": 2884,
  "consider</w>": 2885,
  "guided</w>": 2886,
  "validation</w>": 2887,
  "AM": 2888,
  "2010</w>": 2889,
  "correct</w>": 2890,
  "focal</w>": 2891,
  "pro</w>": 2892,
  "always</w>": 2893,
  "0.": 2894,
  "incorporation</w>": 2895,
  "dry</w>": 2896,
  "Ar": 2897,
  "ib": 2898,
  "counts</w>": 2899,
  "Un": 2900,
  "asymptomatic</w>": 2901,
  "insights</w>": 2902,
  "subunits</w>": 2903,
  "thi": 2904,
  "transgenic</w>": 2905,
  "2017</w>": 2906,
  "separated</w>": 2907,
  "reflect</w>": 2908,
  "operating</w>": 2909,
  "under": 2910,
  "color</w>": 2911,
  "Association</w>": 2912,
  "abuse</w>": 2913,
  "drinking</w>": 2914,
  "precursor</w>": 2915,
  "enzymatic</w>": 2916,
  "hypo": 2917,
  "Neuro": 2918,
  "twice</w>": 2919,
  "chains</w>": 2920,
  "Assessment</w>": 2921,
  "layers</w>": 2922,
  "version</w>": 2923,
  "candidate</w>": 2924,
  "thrombosis</w>": 2925,
  "voltage</w>": 2926,
  "HF</w>": 2927,
  "macrophage</w>": 2928,
  "METHOD</w>": 2929,
  "Primary</w>": 2930,
  "correction</w>": 2931,
  "charge</w>": 2932,
  "temperatures</w>": 2933,
  "mostly</w>": 2934,
  "AB": 2935,
  "itis</w>": 2936,
  "increasingly</w>": 2937,
  "Ac": 2938,
  "section</w>": 2939,
  "ES</w>": 2940,
  "STUDY</w>": 2941,
  "ons</w>": 2942,
  "L1</w>": 2943,
  "residents</w>": 2944,
  "ines</w>": 2945,
  "interface</w>": 2946,
  "continued</w>": 2947,
  "adjuvant</w>": 2948,
  "indirect</w>": 2949,
  "requiring</w>": 2950,
  "aureus</w>": 2951,
  "ER": 2952,
  "to": 2953,
  "PE": 2954,
  "supplementation</w>": 2955,
  "take</w>": 2956,
  "lumbar</w>": 2957,
  "valuable</w>": 2958,
  "apoptotic</w>": 2959,
  "CNS</w>": 2960,
  "aggressive</w>": 2961,
  "deficits</w>": 2962,
  "predicting</w>": 2963,
  "inferior</w>": 2964,
  "parameter</w>": 2965,
  "maintain</w>": 2966,
  "permeability</w>": 2967,
  "communities</w>": 2968,
  "question</w>": 2969,
  "teeth</w>": 2970,
  "give</w>": 2971,
  "issue</w>": 2972,
  "professional</w>": 2973,
  "Patient</w>": 2974,
  "A2</w>": 2975,
  "worldwide</w>": 2976,
  "categories</w>": 2977,
  "plate</w>": 2978,
  "indices</w>": 2979,
  "attributed</w>": 2980,
  "T2</w>": 2981,
  "scientific</w>": 2982,
  "dec": 2983,
  "cold</w>": 2984,
  "nearly</w>": 2985,
  "orientation</w>": 2986,
  "mobility</w>": 2987,
  "hemoglobin</w>": 2988,
  "Cl</w>": 2989,
  "arrest</w>": 2990,
  "influences</w>": 2991,
  "relapse</w>": 2992,
  "LH</w>": 2993,
  "Previous</w>": 2994,
  "biosynthesis</w>": 2995,
  "ators</w>": 2996,
  "inner</w>": 2997,
  "2011</w>": 2998,
  "mmol</w>": 2999,
  "implants</w>": 3000,
  "errors</w>": 3001,
  "existence</w>": 3002,
  "predictor</w>": 3003,
  "auditory</w>": 3004,
  "requirements</w>": 3005,
  "movements</w>": 3006,
  "CD8</w>": 3007,
  "clones</w>": 3008,
  "manifestations</w>": 3009,
  "0.6</w>": 3010,
  "$</w>": 3011,
  "emerging</w>": 3012,
  "options</w>": 3013,
  "regulates</w>": 3014,
  "FA</w>": 3015,
  "gold</w>": 3016,
  "operated</w>": 3017,
  "Long</w>": 3018,
  "nutritional</w>": 3019,
  "tobacco</w>": 3020,
  "nM</w>": 3021,
  "repeat</w>": 3022,
  "spread</w>": 3023,
  "Their</w>": 3024,
  "excess</w>": 3025,
  "residue</w>": 3026,
  "ablation</w>": 3027,
  "mmHg</w>": 3028,
  "improvements</w>": 3029,
  "sclerosis</w>": 3030,
  "Dis": 3031,
  "live</w>": 3032,
  "af": 3033,
  "bodies</w>": 3034,
  "preliminary</w>": 3035,
  "remission</w>": 3036,
  "SETTING</w>": 3037,
  "HD</w>": 3038,
  "1000</w>": 3039,
  "pelvic</w>": 3040,
  "sepsis</w>": 3041,
  "no": 3042,
  "pneumonia</w>": 3043,
  "column</w>": 3044,
  "ies</w>": 3045,
  "corneal</w>": 3046,
  "foot</w>": 3047,
  "software</w>": 3048,
  "Japanese</w>": 3049,
  "gap</w>": 3050,
  "placement</w>": 3051,
  "1,": 3052,
  "positions</w>": 3053,
  "hippocampal</w>": 3054,
  "NK</w>": 3055,
  "spectral</w>": 3056,
  "‑</w>": 3057,
  "feasibility</w>": 3058,
  "11": 3059,
  "greatly</w>": 3060,
  "Case</w>": 3061,
  "DC</w>": 3062,
  "express</w>": 3063,
  "hem": 3064,
  "estimation</w>": 3065,
  "3.5</w>": 3066,
  "Risk</w>": 3067,
  "easily</w>": 3068,
  "room</w>": 3069,
  "0.8</w>": 3070,
  "ester</w>": 3071,
  "Molecular</w>": 3072,
  "limits</w>": 3073,
  "smokers</w>": 3074,
  "TS</w>": 3075,
  "intrinsic</w>": 3076,
  "simulations</w>": 3077,
  "1.6</w>": 3078,
  "allergic</w>": 3079,
  "ance</w>": 3080,
  "etiology</w>": 3081,
  "stimulating</w>": 3082,
  "EC": 3083,
  "decreasing</w>": 3084,
  "Use</w>": 3085,
  "lacking</w>": 3086,
  "1.4</w>": 3087,
  "ane</w>": 3088,
  "onic</w>": 3089,
  "promoting</w>": 3090,
  "reasons</w>": 3091,
  "E2</w>": 3092,
  "green</w>": 3093,
  "se</w>": 3094,
  "copper</w>": 3095,
  "trends</w>": 3096,
  "clusters</w>": 3097,
  "D1</w>": 3098,
  "circulation</w>": 3099,
  "offer</w>": 3100,
  "Doppler</w>": 3101,
  "lipids</w>": 3102,
  "reversed</w>": 3103,
  "0.03</w>": 3104,
  "introduction</w>": 3105,
  "inducing</w>": 3106,
  "department</w>": 3107,
  "classes</w>": 3108,
  "her</w>": 3109,
  "educational</w>": 3110,
  ",000</w>": 3111,
  "lactate</w>": 3112,
  "absolute</w>": 3113,
  "weak</w>": 3114,
  "gut</w>": 3115,
  "perspective</w>": 3116,
  "CO2</w>": 3117,
  "HS</w>": 3118,
  "bp</w>": 3119,
  "antagonists</w>": 3120,
  "interviews</w>": 3121,
  "unusual</w>": 3122,
  "examinations</w>": 3123,
  "inter</w>": 3124,
  "translation</w>": 3125,
  "loci</w>": 3126,
  "Changes</w>": 3127,
  "responsive</w>": 3128,
  "thin</w>": 3129,
  "ism</w>": 3130,
  "arginine</w>": 3131,
  "medications</w>": 3132,
  "Ca": 3133,
  "ides</w>": 3134,
  "hormones</w>": 3135,
  "homeostasis</w>": 3136,
  "methodology</w>": 3137,
  "DM</w>": 3138,
  "regular</w>": 3139,
  "pa": 3140,
  "axial</w>": 3141,
  "protease</w>": 3142,
  "CT": 3143,
  "ri": 3144,
  "Plasma</w>": 3145,
  "resting</w>": 3146,
  "tin</w>": 3147,
  "malignancy</w>": 3148,
  "ROS</w>": 3149,
  "PD": 3150,
  "guinea</w>": 3151,
  "gestation</w>": 3152,
  "CL": 3153,
  "indicators</w>": 3154,
  "Development</w>": 3155,
  "ra": 3156,
  "Pre": 3157,
  "delivered</w>": 3158,
  "nutrition</w>": 3159,
  "Chronic</w>": 3160,
  "correlate</w>": 3161,
  "2-</w>": 3162,
  "seizures</w>": 3163,
  "parts</w>": 3164,
  "barriers</w>": 3165,
  "phenotypes</w>": 3166,
  "challenging</w>": 3167,
  "trans</w>": 3168,
  "Evidence</w>": 3169,
  "MMP</w>": 3170,
  "link</w>": 3171,
  "photo": 3172,
  "degeneration</w>": 3173,
  "hypothesized</w>": 3174,
  "am</w>": 3175,
  "databases</w>": 3176,
  "robust</w>": 3177,
  "capillary</w>": 3178,
  "steady</w>": 3179,
  "PP</w>": 3180,
  "undertaken</w>": 3181,
  "1.": 3182,
  "oxidase</w>": 3183,
  "cystic</w>": 3184,
  "Also</w>": 3185,
  "true</w>": 3186,
  "ial</w>": 3187,
  "gl": 3188,
  "el</w>": 3189,
  "IN": 3190,
  "ant": 3191,
  "ants</w>": 3192,
  "commercial</w>": 3193,
  "distress</w>": 3194,
  "adaptive</w>": 3195,
  "glycoprotein</w>": 3196,
  "yielded</w>": 3197,
  "none</w>": 3198,
  "mal": 3199,
  "pathogen</w>": 3200,
  "hazard</w>": 3201,
  "biopsies</w>": 3202,
  "classical</w>": 3203,
  "analytical</w>": 3204,
  "substances</w>": 3205,
  "alveolar</w>": 3206,
  "next</w>": 3207,
  "MI</w>": 3208,
  "already</w>": 3209,
  "participation</w>": 3210,
  "testosterone</w>": 3211,
  "car": 3212,
  "fatigue</w>": 3213,
  "fewer</w>": 3214,
  "inactivation</w>": 3215,
  "income</w>": 3216,
  "gave</w>": 3217,
  "grafts</w>": 3218,
  "discovery</w>": 3219,
  "Six</w>": 3220,
  "labeling</w>": 3221,
  "acquisition</w>": 3222,
  "differed</w>": 3223,
  "Recently</w>": 3224,
  "microscopic</w>": 3225,
  "artificial</w>": 3226,
  "compliance</w>": 3227,
  "flap</w>": 3228,
  "professionals</w>": 3229,
  "heterogeneous</w>": 3230,
  "gestational</w>": 3231,
  "initiated</w>": 3232,
  "radi": 3233,
  "Multiple</w>": 3234,
  "typically</w>": 3235,
  "evident</w>": 3236,
  "edema</w>": 3237,
  "ver": 3238,
  "eth": 3239,
  "input</w>": 3240,
  "items</w>": 3241,
  "contributes</w>": 3242,
  "filtration</w>": 3243,
  "Low</w>": 3244,
  "insight</w>": 3245,
  "Per": 3246,
  "First</w>": 3247,
  "display</w>": 3248,
  "reveals</w>": 3249,
  "izing</w>": 3250,
  "frontal</w>": 3251,
  "Hz</w>": 3252,
  "neutral</w>": 3253,
  "providers</w>": 3254,
  "awareness</w>": 3255,
  "beyond</w>": 3256,
  "ren": 3257,
  "1.8</w>": 3258,
  "contents</w>": 3259,
  "OA</w>": 3260,
  "concomitant</w>": 3261,
  "SR</w>": 3262,
  "adjustment</w>": 3263,
  "AS": 3264,
  "se": 3265,
  "all": 3266,
  "ear</w>": 3267,
  "protocols</w>": 3268,
  "seem</w>": 3269,
  "heparin</w>": 3270,
  "parent</w>": 3271,
  "NA</w>": 3272,
  "born</w>": 3273,
  "hippocampus</w>": 3274,
  "progesterone</w>": 3275,
  "respond</w>": 3276,
  "Ds</w>": 3277,
  "CC</w>": 3278,
  "≤</w>": 3279,
  "reviews</w>": 3280,
  "consensus</w>": 3281,
  "Care</w>": 3282,
  "complicated</w>": 3283,
  "parental</w>": 3284,
  "depletion</w>": 3285,
  "malaria</w>": 3286,
  "weighted</w>": 3287,
  "amplification</w>": 3288,
  "person</w>": 3289,
  "Its</w>": 3290,
  "HBV</w>": 3291,
  "SM": 3292,
  "adsorption</w>": 3293,
  "entry</w>": 3294,
  "outer</w>": 3295,
  "HPLC</w>": 3296,
  "highlight</w>": 3297,
  "ks</w>": 3298,
  "interpretation</w>": 3299,
  "neither</w>": 3300,
  "determinants</w>": 3301,
  "Other</w>": 3302,
  "phot": 3303,
  "activator</w>": 3304,
  "met</w>": 3305,
  "detecting</w>": 3306,
  "GABA</w>": 3307,
  "HDL</w>": 3308,
  "Bi": 3309,
  "film</w>": 3310,
  "optic</w>": 3311,
  "duct</w>": 3312,
  "inhibiting</w>": 3313,
  "lens</w>": 3314,
  "platelets</w>": 3315,
  "clinicians</w>": 3316,
  "immunodeficiency</w>": 3317,
  "ity</w>": 3318,
  "epidermal</w>": 3319,
  "relevance</w>": 3320,
  "closure</w>": 3321,
  "up": 3322,
  "itself</w>": 3323,
  "portion</w>": 3324,
  "modifications</w>": 3325,
  "prevalent</w>": 3326,
  "ABSTRACT</w>": 3327,
  "improves</w>": 3328,
  "AIMS</w>": 3329,
  "sheep</w>": 3330,
  "hospitalization</w>": 3331,
  "AM</w>": 3332,
  "structured</w>": 3333,
  "col": 3334,
  "proliferative</w>": 3335,
  "undergo</w>": 3336,
  "F1</w>": 3337,
  "dissection</w>": 3338,
  "rectal</w>": 3339,
  "IC": 3340,
  "compression</w>": 3341,
  "sought</w>": 3342,
  "preventing</w>": 3343,
  "ut": 3344,
  "raised</w>": 3345,
  "immunoglobulin</w>": 3346,
  "hydrolysis</w>": 3347,
  "uc": 3348,
  "anatomical</w>": 3349,
  "avoid</w>": 3350,
  "0.9</w>": 3351,
  "proven</w>": 3352,
  "screened</w>": 3353,
  "diffuse</w>": 3354,
  "PATIENTS</w>": 3355,
  "Forty</w>": 3356,
  "precise</w>": 3357,
  "be": 3358,
  "cloned</w>": 3359,
  "amin": 3360,
  "hair</w>": 3361,
  "similarity</w>": 3362,
  "tin": 3363,
  "reading</w>": 3364,
  "attitudes</w>": 3365,
  "Me": 3366,
  "pylori</w>": 3367,
  "fungal</w>": 3368,
  "enriched</w>": 3369,
  "CR</w>": 3370,
  "unilateral</w>": 3371,
  "pair</w>": 3372,
  "creatinine</w>": 3373,
  "stent</w>": 3374,
  "aneurysm</w>": 3375,
  "lost</w>": 3376,
  "colony</w>": 3377,
  "DR</w>": 3378,
  "NO": 3379,
  "Cl": 3380,
  "portal</w>": 3381,
  "digital</w>": 3382,
  "option</w>": 3383,
  "refractory</w>": 3384,
  "acts</w>": 3385,
  "advantage</w>": 3386,
  "pe": 3387,
  "oph": 3388,
  "needle</w>": 3389,
  "embryo</w>": 3390,
  "percutaneous</w>": 3391,
  "excluded</w>": 3392,
  "Non</w>": 3393,
  "agonists</w>": 3394,
  "environments</w>": 3395,
  "exogenous</w>": 3396,
  "subtypes</w>": 3397,
  "identity</w>": 3398,
  "BM": 3399,
  "correlates</w>": 3400,
  "combinations</w>": 3401,
  "observational</w>": 3402,
  "PG": 3403,
  "vaginal</w>": 3404,
  "array</w>": 3405,
  "pilot</w>": 3406,
  "0.7</w>": 3407,
  "μg</w>": 3408,
  "DI": 3409,
  "transcripts</w>": 3410,
  "Total</w>": 3411,
  "B1</w>": 3412,
  "AN": 3413,
  "2.2</w>": 3414,
  "net</w>": 3415,
  "implemented</w>": 3416,
  "PM</w>": 3417,
  "cortisol</w>": 3418,
  "translocation</w>": 3419,
  "IC</w>": 3420,
  "guide</w>": 3421,
  "ex</w>": 3422,
  "sis</w>": 3423,
  "technical</w>": 3424,
  "pure</w>": 3425,
  "abundance</w>": 3426,
  "cut</w>": 3427,
  "Cells</w>": 3428,
  "homologous</w>": 3429,
  "01</w>": 3430,
  "visits</w>": 3431,
  "king</w>": 3432,
  "SF</w>": 3433,
  "offers</w>": 3434,
  "fall</w>": 3435,
  "leaves</w>": 3436,
  "pr": 3437,
  "Parkinson</w>": 3438,
  "plaque</w>": 3439,
  "morphine</w>": 3440,
  "genotypes</w>": 3441,
  "limiting</w>": 3442,
  "promotes</w>": 3443,
  "WORDS</w>": 3444,
  "speech</w>": 3445,
  "tension</w>": 3446,
  "beam</w>": 3447,
  "reductase</w>": 3448,
  "ad</w>": 3449,
  "author</w>": 3450,
  "fundamental</w>": 3451,
  "BC</w>": 3452,
  "obstructive</w>": 3453,
  "subjective</w>": 3454,
  "SI</w>": 3455,
  "represented</w>": 3456,
  "ways</w>": 3457,
  "survivors</w>": 3458,
  "dimensions</w>": 3459,
  "dosage</w>": 3460,
  "Significant</w>": 3461,
  "4.5</w>": 3462,
  "coverage</w>": 3463,
  "changing</w>": 3464,
  "Protein</w>": 3465,
  "MA</w>": 3466,
  "leaf</w>": 3467,
  "scales</w>": 3468,
  "ing": 3469,
  "unchanged</w>": 3470,
  "alization</w>": 3471,
  "consists</w>": 3472,
  "turn</w>": 3473,
  "substantially</w>": 3474,
  "excision</w>": 3475,
  "surrounding</w>": 3476,
  "Control</w>": 3477,
  "supporting</w>": 3478,
  "LA</w>": 3479,
  "diets</w>": 3480,
  "allowing</w>": 3481,
  "aid</w>": 3482,
  "supports</w>": 3483,
  "exists</w>": 3484,
  "electrode</w>": 3485,
  "CF</w>": 3486,
  "Zn</w>": 3487,
  "sizes</w>": 3488,
  "activating</w>": 3489,
  "ogenesis</w>": 3490,
  "probes</w>": 3491,
  "adolescent</w>": 3492,
  "cr": 3493,
  "DE": 3494,
  "fine</w>": 3495,
  "subset</w>": 3496,
  "consistently</w>": 3497,
  "CL</w>": 3498,
  "caspase</w>": 3499,
  "created</w>": 3500,
  "T3</w>": 3501,
  "TRUNCATED</w>": 3502,
  "chromatin</w>": 3503,
  "micro</w>": 3504,
  "simulated</w>": 3505,
  "concern</w>": 3506,
  "transduction</w>": 3507,
  "ectomy</w>": 3508,
  "vision</w>": 3509,
  "1.7</w>": 3510,
  "blue</w>": 3511,
  "elicited</w>": 3512,
  "8.": 3513,
  "transfusion</w>": 3514,
  "indications</w>": 3515,
  "concerns</w>": 3516,
  "evolutionary</w>": 3517,
  "resource</w>": 3518,
  "participated</w>": 3519,
  "cirrhosis</w>": 3520,
  "Sh": 3521,
  "chromosomal</w>": 3522,
  "PT</w>": 3523,
  "rarely</w>": 3524,
  "Th": 3525,
  "RNAs</w>": 3526,
  "preterm</w>": 3527,
  "rs": 3528,
  "q</w>": 3529,
  "incubated</w>": 3530,
  "epidemiological</w>": 3531,
  "D2</w>": 3532,
  "resolved</w>": 3533,
  "endocrine</w>": 3534,
  "metabolite</w>": 3535,
  "30": 3536,
  "hydro": 3537,
  "occupational</w>": 3538,
  "coated</w>": 3539,
  "transformed</w>": 3540,
  "false</w>": 3541,
  "regimens</w>": 3542,
  "rheumatoid</w>": 3543,
  "2D</w>": 3544,
  "2.1</w>": 3545,
  "intracranial</w>": 3546,
  "feasible</w>": 3547,
  "ors</w>": 3548,
  "deviation</w>": 3549,
  "P2</w>": 3550,
  "team</w>": 3551,
  "intestine</w>": 3552,
  "scans</w>": 3553,
  "m2</w>": 3554,
  "member</w>": 3555,
  "spin</w>": 3556,
  "quantum</w>": 3557,
  "DR": 3558,
  "complexity</w>": 3559,
  "international</w>": 3560,
  "rejection</w>": 3561,
  "elimination</w>": 3562,
  "genus</w>": 3563,
  "estradiol</w>": 3564,
  "encoded</w>": 3565,
  "trained</w>": 3566,
  "mesenchymal</w>": 3567,
  "motility</w>": 3568,
  "PM": 3569,
  "stained</w>": 3570,
  "rec": 3571,
  "Current</w>": 3572,
  "sympathetic</w>": 3573,
  "attachment</w>": 3574,
  "3.0</w>": 3575,
  "solvent</w>": 3576,
  "project</w>": 3577,
  "infiltration</w>": 3578,
  "girls</w>": 3579,
  "junction</w>": 3580,
  "adipose</w>": 3581,
  "2.4</w>": 3582,
  "decades</w>": 3583,
  "ness</w>": 3584,
  "anemia</w>": 3585,
  "supply</w>": 3586,
  "Par": 3587,
  "absent</w>": 3588,
  "instability</w>": 3589,
  "Inter": 3590,
  "alleles</w>": 3591,
  "downstream</w>": 3592,
  "0.04</w>": 3593,
  "pronounced</w>": 3594,
  "indicator</w>": 3595,
  "parasite</w>": 3596,
  "PI": 3597,
  "TI": 3598,
  "reversible</w>": 3599,
  "ian</w>": 3600,
  "Ph": 3601,
  "carriers</w>": 3602,
  "Between</w>": 3603,
  "System</w>": 3604,
  "Review</w>": 3605,
  "secretory</w>": 3606,
  "technologies</w>": 3607,
  "teaching</w>": 3608,
  "COPD</w>": 3609,
  "subcutaneous</w>": 3610,
  "ics</w>": 3611,
  "hepatocellular</w>": 3612,
  "AMP</w>": 3613,
  "aorta</w>": 3614,
  "alkaline</w>": 3615,
  "decisions</w>": 3616,
  "fasting</w>": 3617,
  "mineral</w>": 3618,
  "situation</w>": 3619,
  "0.9": 3620,
  "timing</w>": 3621,
  "binds</w>": 3622,
  "outpatient</w>": 3623,
  "ang": 3624,
  "black</w>": 3625,
  "biliary</w>": 3626,
  "plane</w>": 3627,
  "closed</w>": 3628,
  "res": 3629,
  ".05</w>": 3630,
  "serotonin</w>": 3631,
  "adrenergic</w>": 3632,
  "ality</w>": 3633,
  "likelihood</w>": 3634,
  "vaccines</w>": 3635,
  "atherosclerosis</w>": 3636,
  "IgE</w>": 3637,
  "beginning</w>": 3638,
  "difficulties</w>": 3639,
  "vary</w>": 3640,
  "carrier</w>": 3641,
  "International</w>": 3642,
  "MI": 3643,
  "favorable</w>": 3644,
  "G1</w>": 3645,
  "annual</w>": 3646,
  "starting</w>": 3647,
  "films</w>": 3648,
  "Ad": 3649,
  "CI": 3650,
  "chromosomes</w>": 3651,
  "vehicle</w>": 3652,
  "namely</w>": 3653,
  "Ag</w>": 3654,
  "Identification</w>": 3655,
  "ographic</w>": 3656,
  "start</w>": 3657,
  "Under</w>": 3658,
  "cytometry</w>": 3659,
  "mother</w>": 3660,
  "reach</w>": 3661,
  "attempt</w>": 3662,
  "discrimination</w>": 3663,
  "Functional</w>": 3664,
  "widespread</w>": 3665,
  "ell": 3666,
  "interact</w>": 3667,
  "pump</w>": 3668,
  "amyloid</w>": 3669,
  "diagnoses</w>": 3670,
  "managed</w>": 3671,
  "monitor</w>": 3672,
  "Surgical</w>": 3673,
  "gen": 3674,
  "blockade</w>": 3675,
  "tertiary</w>": 3676,
  "researchers</w>": 3677,
  "Increased</w>": 3678,
  "ser": 3679,
  "γ</w>": 3680,
  "chemistry</w>": 3681,
  "PF": 3682,
  "for": 3683,
  "neutrophils</w>": 3684,
  ".0": 3685,
  "screen</w>": 3686,
  "somatic</w>": 3687,
  "angiogenesis</w>": 3688,
  "rotation</w>": 3689,
  "1.9</w>": 3690,
  "nan": 3691,
  "plastic</w>": 3692,
  "25": 3693,
  "engineering</w>": 3694,
  "respondents</w>": 3695,
  "hepatocytes</w>": 3696,
  "hydrophobic</w>": 3697,
  "regardless</w>": 3698,
  "neutrophil</w>": 3699,
  "carbohydrate</w>": 3700,
  "fit</w>": 3701,
  "alis</w>": 3702,
  "bo": 3703,
  "2009</w>": 3704,
  "selectively</w>": 3705,
  "modulate</w>": 3706,
  "otic</w>": 3707,
  "ethyl</w>": 3708,
  "EGFR</w>": 3709,
  "volumes</w>": 3710,
  "Japan</w>": 3711,
  "differentially</w>": 3712,
  "pancreas</w>": 3713,
  "intraoperative</w>": 3714,
  "ke</w>": 3715,
  "million</w>": 3716,
  "recruitment</w>": 3717,
  "cisplatin</w>": 3718,
  "emerged</w>": 3719,
  "histamine</w>": 3720,
  "locations</w>": 3721,
  "According</w>": 3722,
  "prospectively</w>": 3723,
  "involve</w>": 3724,
  "electric</w>": 3725,
  "Drosophila</w>": 3726,
  "Women</w>": 3727,
  "responsiveness</w>": 3728,
  "S1</w>": 3729,
  "ometric</w>": 3730,
  "equilibrium</w>": 3731,
  "Over</w>": 3732,
  "ma": 3733,
  "he": 3734,
  "operations</w>": 3735,
  "Index</w>": 3736,
  "sensor</w>": 3737,
  "maintaining</w>": 3738,
  "ill": 3739,
  "platform</w>": 3740,
  "quantified</w>": 3741,
  "Africa</w>": 3742,
  "phenotypic</w>": 3743,
  "immunohistochemistry</w>": 3744,
  "idiopathic</w>": 3745,
  "ensure</w>": 3746,
  "ICU</w>": 3747,
  "atypical</w>": 3748,
  "postnatal</w>": 3749,
  "MHC</w>": 3750,
  "makes</w>": 3751,
  "tic": 3752,
  "glands</w>": 3753,
  "June</w>": 3754,
  "mitral</w>": 3755,
  "Gy</w>": 3756,
  "SL": 3757,
  "NP</w>": 3758,
  "IgM</w>": 3759,
  "principles</w>": 3760,
  "proper</w>": 3761,
  "eating</w>": 3762,
  "quantification</w>": 3763,
  "ational</w>": 3764,
  "greatest</w>": 3765,
  "suffering</w>": 3766,
  "sessions</w>": 3767,
  "SE": 3768,
  "ologic</w>": 3769,
  "suppressor</w>": 3770,
  "transfected</w>": 3771,
  "RS</w>": 3772,
  "mammary</w>": 3773,
  "secreted</w>": 3774,
  "representative</w>": 3775,
  "histologic</w>": 3776,
  "atrophy</w>": 3777,
  "oxy": 3778,
  "ongoing</w>": 3779,
  "outside</w>": 3780,
  "SN": 3781,
  "acceptable</w>": 3782,
  "emia</w>": 3783,
  "follows</w>": 3784,
  "rice</w>": 3785,
  "construct</w>": 3786,
  "consequence</w>": 3787,
  "performing</w>": 3788,
  "prophylaxis</w>": 3789,
  "academic</w>": 3790,
  "2.6</w>": 3791,
  "peri": 3792,
  "ment</w>": 3793,
  "leg</w>": 3794,
  "map</w>": 3795,
  "ten": 3796,
  "subgroup</w>": 3797,
  "ose</w>": 3798,
  "shared</w>": 3799,
  "lungs</w>": 3800,
  "echocardiography</w>": 3801,
  "assessments</w>": 3802,
  "ular</w>": 3803,
  "loaded</w>": 3804,
  "sequential</w>": 3805,
  "MAIN</w>": 3806,
  "interference</w>": 3807,
  "CM</w>": 3808,
  "MT</w>": 3809,
  "endometrial</w>": 3810,
  "immunohistochemical</w>": 3811,
  "elucidate</w>": 3812,
  "label</w>": 3813,
  "3.2</w>": 3814,
  "India</w>": 3815,
  "preferred</w>": 3816,
  "urea</w>": 3817,
  "MD</w>": 3818,
  "NS</w>": 3819,
  "lobe</w>": 3820,
  "accurately</w>": 3821,
  "CRC</w>": 3822,
  "pg</w>": 3823,
  "Staphylococcus</w>": 3824,
  "contamination</w>": 3825,
  "stimulate</w>": 3826,
  "newborn</w>": 3827,
  "CN": 3828,
  "ids</w>": 3829,
  "questionnaires</w>": 3830,
  "integrity</w>": 3831,
  "efficiently</w>": 3832,
  "ventral</w>": 3833,
  "remodeling</w>": 3834,
  "regulator</w>": 3835,
  "malignancies</w>": 3836,
  "withdrawal</w>": 3837,
  "ev": 3838,
  "online</w>": 3839,
  "seed</w>": 3840,
  "SF": 3841,
  "Co</w>": 3842,
  "proton</w>": 3843,
  "ground</w>": 3844,
  "linkage</w>": 3845,
  "2.3</w>": 3846,
  "corrected</w>": 3847,
  "VA</w>": 3848,
  "GM</w>": 3849,
  "incorporated</w>": 3850,
  "ulcer</w>": 3851,
  "fibrillation</w>": 3852,
  "omas</w>": 3853,
  "surgeons</w>": 3854,
  "actual</w>": 3855,
  "Interestingly</w>": 3856,
  "2,": 3857,
  "enhancing</w>": 3858,
  "biomarker</w>": 3859,
  "Sub": 3860,
  "des": 3861,
  "produces</w>": 3862,
  "superoxide</w>": 3863,
  "CC": 3864,
  "drainage</w>": 3865,
  "abundant</w>": 3866,
  "phosphorylated</w>": 3867,
  "faster</w>": 3868,
  "cumulative</w>": 3869,
  "Genetic</w>": 3870,
  "UK</w>": 3871,
  "activate</w>": 3872,
  "TE": 3873,
  "route</w>": 3874,
  "precision</w>": 3875,
  "largest</w>": 3876,
  "coefficients</w>": 3877,
  "he</w>": 3878,
  "GA</w>": 3879,
  "ak": 3880,
  "conformation</w>": 3881,
  "comparisons</w>": 3882,
  "TB": 3883,
  "phenyl": 3884,
  "summary</w>": 3885,
  "MT": 3886,
  "pathologic</w>": 3887,
  "cysteine</w>": 3888,
  "ca": 3889,
  "subtype</w>": 3890,
  "generalized</w>": 3891,
  "substitution</w>": 3892,
  "respective</w>": 3893,
  "panel</w>": 3894,
  "hypertrophy</w>": 3895,
  "serine</w>": 3896,
  "stomach</w>": 3897,
  "stromal</w>": 3898,
  "fresh</w>": 3899,
  "tolerated</w>": 3900,
  "PB": 3901,
  "viable</w>": 3902,
  "Pr": 3903,
  "representing</w>": 3904,
  "inducible</w>": 3905,
  "ach": 3906,
  "AL</w>": 3907,
  "nerves</w>": 3908,
  "vital</w>": 3909,
  "interstitial</w>": 3910,
  "derivative</w>": 3911,
  "prominent</w>": 3912,
  "abolished</w>": 3913,
  "suicide</w>": 3914,
  "complementary</w>": 3915,
  "RO": 3916,
  "demonstrating</w>": 3917,
  "randomised</w>": 3918,
  "cal": 3919,
  "responded</w>": 3920,
  "HC": 3921,
  "overview</w>": 3922,
  "glomerular</w>": 3923,
  "readily</w>": 3924,
  "country</w>": 3925,
  "never</w>": 3926,
  "9.": 3927,
  "consideration</w>": 3928,
  "Role</w>": 3929,
  "ou": 3930,
  "promoted</w>": 3931,
  "premature</w>": 3932,
  "Anti": 3933,
  "Drug</w>": 3934,
  "egg</w>": 3935,
  "histone</w>": 3936,
  "land</w>": 3937,
  "race</w>": 3938,
  "enhances</w>": 3939,
  "brief</w>": 3940,
  "miRNAs</w>": 3941,
  "strand</w>": 3942,
  "distributions</w>": 3943,
  "enable</w>": 3944,
  "forces</w>": 3945,
  "automated</w>": 3946,
  "if": 3947,
  "K1</w>": 3948,
  "atus</w>": 3949,
  "hemodynamic</w>": 3950,
  "depressed</w>": 3951,
  "selectivity</w>": 3952,
  "kappa</w>": 3953,
  "tooth</w>": 3954,
  "implanted</w>": 3955,
  "predominant</w>": 3956,
  "ionic</w>": 3957,
  "diminished</w>": 3958,
  "description</w>": 3959,
  "effort</w>": 3960,
  "worse</w>": 3961,
  "myeloid</w>": 3962,
  "mediate</w>": 3963,
  "log</w>": 3964,
  "AI</w>": 3965,
  "polypeptide</w>": 3966,
  "ati": 3967,
  "endothelium</w>": 3968,
  "calculations</w>": 3969,
  "modalities</w>": 3970,
  "studying</w>": 3971,
  "27": 3972,
  "tail</w>": 3973,
  "shaped</w>": 3974,
  "rupture</w>": 3975,
  "disruption</w>": 3976,
  "28": 3977,
  "Br": 3978,
  "onto</w>": 3979,
  "disc</w>": 3980,
  "dendritic</w>": 3981,
  "deficit</w>": 3982,
  "TA</w>": 3983,
  "Salmonella</w>": 3984,
  "quantify</w>": 3985,
  "IgA</w>": 3986,
  "min": 3987,
  "3.1</w>": 3988,
  "abilities</w>": 3989,
  "tree</w>": 3990,
  "cyst</w>": 3991,
  "passive</w>": 3992,
  "CRP</w>": 3993,
  "just</w>": 3994,
  "nmol</w>": 3995,
  "standards</w>": 3996,
  "mid</w>": 3997,
  "preference</w>": 3998,
  "monocytes</w>": 3999,
  "competitive</w>": 4000,
  "TH": 4001,
  "Quality</w>": 4002,
  "addressed</w>": 4003,
  "dic": 4004,
  "23": 4005,
  "cattle</w>": 4006,
  "autophagy</w>": 4007,
  "yields</w>": 4008,
  "SO": 4009,
  "apical</w>": 4010,
  "ta</w>": 4011,
  "MR": 4012,
  "SS": 4013,
  "pregnancies</w>": 4014,
  "bed</w>": 4015,
  "cats</w>": 4016,
  "infrared</w>": 4017,
  "T4</w>": 4018,
  "square</w>": 4019,
  "participate</w>": 4020,
  "computational</w>": 4021,
  "North</w>": 4022,
  "NSCLC</w>": 4023,
  "OR": 4024,
  "discovered</w>": 4025,
  "ome</w>": 4026,
  "iz": 4027,
  "cytoplasm</w>": 4028,
  "immunization</w>": 4029,
  "walking</w>": 4030,
  "perceptions</w>": 4031,
  "cor": 4032,
  "western</w>": 4033,
  "PG</w>": 4034,
  "instrument</w>": 4035,
  "tion</w>": 4036,
  "HC</w>": 4037,
  "CS": 4038,
  "tendon</w>": 4039,
  "isoforms</w>": 4040,
  "normally</w>": 4041,
  "Single</w>": 4042,
  "le</w>": 4043,
  "lin": 4044,
  "hydroxy</w>": 4045,
  "mobile</w>": 4046,
  "II": 4047,
  "virulence</w>": 4048,
  "processed</w>": 4049,
  "2.8</w>": 4050,
  "potency</w>": 4051,
  "boys</w>": 4052,
  "nutrient</w>": 4053,
  "ker</w>": 4054,
  "CAD</w>": 4055,
  "comprised</w>": 4056,
  "permanent</w>": 4057,
  "placental</w>": 4058,
  "considerably</w>": 4059,
  "articular</w>": 4060,
  "transporter</w>": 4061,
  "TA": 4062,
  "dissociation</w>": 4063,
  "nurse</w>": 4064,
  "accounted</w>": 4065,
  "visible</w>": 4066,
  "est</w>": 4067,
  "Le": 4068,
  "BM</w>": 4069,
  "peroxidase</w>": 4070,
  "genetically</w>": 4071,
  "2008</w>": 4072,
  "Cox</w>": 4073,
  "LI": 4074,
  "rom": 4075,
  "blocking</w>": 4076,
  "postoperatively</w>": 4077,
  "formulation</w>": 4078,
  "PH": 4079,
  "porcine</w>": 4080,
  "vertical</w>": 4081,
  "principal</w>": 4082,
  "benz": 4083,
  "glass</w>": 4084,
  "DM": 4085,
  "critically</w>": 4086,
  "pathophysiology</w>": 4087,
  "otomy</w>": 4088,
  "bands</w>": 4089,
  "proportional</w>": 4090,
  "ary</w>": 4091,
  "reductions</w>": 4092,
  "radiographic</w>": 4093,
  "00</w>": 4094,
  "kinases</w>": 4095,
  "experimentally</w>": 4096,
  "CM": 4097,
  "carrying</w>": 4098,
  "hematopoietic</w>": 4099,
  "Fifty</w>": 4100,
  "7.5</w>": 4101,
  "TC</w>": 4102,
  "offspring</w>": 4103,
  "coagulation</w>": 4104,
  "ADP</w>": 4105,
  "Rs</w>": 4106,
  "focusing</w>": 4107,
  "March</w>": 4108,
  "turnover</w>": 4109,
  "immunological</w>": 4110,
  "science</w>": 4111,
  "recombination</w>": 4112,
  "5.5</w>": 4113,
  "overcome</w>": 4114,
  "il</w>": 4115,
  "seizure</w>": 4116,
  "cocaine</w>": 4117,
  "top</w>": 4118,
  "Pseudomonas</w>": 4119,
  "see</w>": 4120,
  "considering</w>": 4121,
  "acuity</w>": 4122,
  "mid": 4123,
  "started</w>": 4124,
  "ov": 4125,
  "return</w>": 4126,
  "hom": 4127,
  "Poly": 4128,
  "00": 4129,
  "lethal</w>": 4130,
  "SM</w>": 4131,
  "latency</w>": 4132,
  "PKC</w>": 4133,
  "subgroups</w>": 4134,
  "Age</w>": 4135,
  "steroids</w>": 4136,
  "2.7</w>": 4137,
  "pressures</w>": 4138,
  "minute</w>": 4139,
  "eligible</w>": 4140,
  "depend</w>": 4141,
  "2018</w>": 4142,
  "oocytes</w>": 4143,
  "adapted</w>": 4144,
  "prenatal</w>": 4145,
  "MP</w>": 4146,
  "met": 4147,
  "tor</w>": 4148,
  "Trans": 4149,
  "bl": 4150,
  "AUC</w>": 4151,
  "EGF</w>": 4152,
  "blocks</w>": 4153,
  "exon</w>": 4154,
  "immunoreactivity</w>": 4155,
  "5.0</w>": 4156,
  "easy</w>": 4157,
  "prostaglandin</w>": 4158,
  "Inhibition</w>": 4159,
  "visit</w>": 4160,
  "definition</w>": 4161,
  "ventricle</w>": 4162,
  "Objective</w>": 4163,
  "CV</w>": 4164,
  "modes</w>": 4165,
  "protect</w>": 4166,
  "immun": 4167,
  "apparently</w>": 4168,
  "sham</w>": 4169,
  "modern</w>": 4170,
  "unaffected</w>": 4171,
  "radiological</w>": 4172,
  "Ts</w>": 4173,
  "retained</w>": 4174,
  "organism</w>": 4175,
  "situations</w>": 4176,
  "AI": 4177,
  "modulated</w>": 4178,
  "chamber</w>": 4179,
  "equation</w>": 4180,
  "SEM</w>": 4181,
  "acidic</w>": 4182,
  "phenyl</w>": 4183,
  "alized</w>": 4184,
  "VI</w>": 4185,
  "Im": 4186,
  "semi</w>": 4187,
  "contralateral</w>": 4188,
  "dye</w>": 4189,
  "Hyper": 4190,
  "alteration</w>": 4191,
  "continue</w>": 4192,
  "encountered</w>": 4193,
  "kb</w>": 4194,
  "C1</w>": 4195,
  "feed</w>": 4196,
  "Ten</w>": 4197,
  "preventive</w>": 4198,
  "hyperplasia</w>": 4199,
  "recording</w>": 4200,
  "He</w>": 4201,
  "Survey</w>": 4202,
  "bonds</w>": 4203,
  "canal</w>": 4204,
  "impacts</w>": 4205,
  "syndromes</w>": 4206,
  "NPs</w>": 4207,
  "cis</w>": 4208,
  "decade</w>": 4209,
  "text</w>": 4210,
  "fatal</w>": 4211,
  "HB": 4212,
  "registered</w>": 4213,
  "familial</w>": 4214,
  "-2</w>": 4215,
  "ATPase</w>": 4216,
  "mononuclear</w>": 4217,
  "Self</w>": 4218,
  "irradiated</w>": 4219,
  "125</w>": 4220,
  "3-</w>": 4221,
  "optimized</w>": 4222,
  "powerful</w>": 4223,
  "psychosocial</w>": 4224,
  "substituted</w>": 4225,
  "topical</w>": 4226,
  "Mon": 4227,
  "av": 4228,
  "24": 4229,
  "Tr": 4230,
  "institution</w>": 4231,
  "tended</w>": 4232,
  "ax": 4233,
  "signalling</w>": 4234,
  "1-</w>": 4235,
  "roots</w>": 4236,
  "BD</w>": 4237,
  "practitioners</w>": 4238,
  "CH</w>": 4239,
  "retina</w>": 4240,
  "Gene</w>": 4241,
  "oids</w>": 4242,
  "cysts</w>": 4243,
  "homology</w>": 4244,
  "plasticity</w>": 4245,
  "contributing</w>": 4246,
  "isolate</w>": 4247,
  "autologous</w>": 4248,
  "su": 4249,
  "2.9</w>": 4250,
  "Cd</w>": 4251,
  "dys": 4252,
  "180</w>": 4253,
  "MO": 4254,
  "conformational</w>": 4255,
  "yr</w>": 4256,
  "del": 4257,
  "weekly</w>": 4258,
  "programme</w>": 4259,
  "wheat</w>": 4260,
  "Non": 4261,
  "0.005</w>": 4262,
  "IM": 4263,
  "sensing</w>": 4264,
  "sugar</w>": 4265,
  "Factors</w>": 4266,
  "Taken</w>": 4267,
  "searched</w>": 4268,
  "compartment</w>": 4269,
  "reflex</w>": 4270,
  "Center</w>": 4271,
  "prescribed</w>": 4272,
  "3,": 4273,
  "M1</w>": 4274,
  "canine</w>": 4275,
  "Society</w>": 4276,
  "glaucoma</w>": 4277,
  "ylation</w>": 4278,
  "hormonal</w>": 4279,
  "highlights</w>": 4280,
  "ECG</w>": 4281,
  "anatomy</w>": 4282,
  "Within</w>": 4283,
  "facilities</w>": 4284,
  "exhibits</w>": 4285,
  "atic</w>": 4286,
  "idae</w>": 4287,
  "macro": 4288,
  "AG": 4289,
  "Due</w>": 4290,
  "aut": 4291,
  "bronchial</w>": 4292,
  "discussion</w>": 4293,
  "neuron</w>": 4294,
  "TG</w>": 4295,
  "rated</w>": 4296,
  "buffer</w>": 4297,
  "record</w>": 4298,
  "SR": 4299,
  "odi": 4300,
  "shoulder</w>": 4301,
  "wk</w>": 4302,
  "salivary</w>": 4303,
  "former</w>": 4304,
  "exact</w>": 4305,
  "candidates</w>": 4306,
  "ds</w>": 4307,
  "reticulum</w>": 4308,
  "labelled</w>": 4309,
  "reason</w>": 4310,
  "3.4</w>": 4311,
  "aromatic</w>": 4312,
  "ps</w>": 4313,
  "digestion</w>": 4314,
  "cows</w>": 4315,
  "dog</w>": 4316,
  "radial</w>": 4317,
  "ents</w>": 4318,
  "accepted</w>": 4319,
  "pool</w>": 4320,
  "yn": 4321,
  "ometry</w>": 4322,
  "inside</w>": 4323,
  "4.0</w>": 4324,
  "modality</w>": 4325,
  "expressions</w>": 4326,
  "trait</w>": 4327,
  "contributed</w>": 4328,
  "industry</w>": 4329,
  "sarcoma</w>": 4330,
  "Fs</w>": 4331,
  "differentiate</w>": 4332,
  "static</w>": 4333,
  "satisfactory</w>": 4334,
  "frame</w>": 4335,
  "capture</w>": 4336,
  "fistula</w>": 4337,
  "Characterization</w>": 4338,
  "climate</w>": 4339,
  "architecture</w>": 4340,
  "Com": 4341,
  "severely</w>": 4342,
  "breathing</w>": 4343,
  "ni": 4344,
  "Test</w>": 4345,
  "July</w>": 4346,
  "detail</w>": 4347,
  "demand</w>": 4348,
  "conduction</w>": 4349,
  "PV</w>": 4350,
  "difficulty</w>": 4351,
  "May</w>": 4352,
  "phylogenetic</w>": 4353,
  "unrelated</w>": 4354,
  "create</w>": 4355,
  "guidance</w>": 4356,
  "Col": 4357,
  "releasing</w>": 4358,
  "EN": 4359,
  "erythrocytes</w>": 4360,
  "IP</w>": 4361,
  "stiffness</w>": 4362,
  "purification</w>": 4363,
  "tubular</w>": 4364,
  "stronger</w>": 4365,
  "larvae</w>": 4366,
  "scattering</w>": 4367,
  "ru": 4368,
  "asked</w>": 4369,
  "disturbances</w>": 4370,
  "CMV</w>": 4371,
  "mRNAs</w>": 4372,
  "aeruginosa</w>": 4373,
  "paired</w>": 4374,
  "pancreatitis</w>": 4375,
  "combining</w>": 4376,
  "fibroblast</w>": 4377,
  "video</w>": 4378,
  "max</w>": 4379,
  "excessive</w>": 4380,
  "Herein</w>": 4381,
  "pleural</w>": 4382,
  "yr": 4383,
  "cultural</w>": 4384,
  "uro": 4385,
  "MD": 4386,
  "hospitalized</w>": 4387,
  "returned</w>": 4388,
  "κB</w>": 4389,
  "opportunities</w>": 4390,
  "requirement</w>": 4391,
  "sol": 4392,
  "ub": 4393,
  "Management</w>": 4394,
  "EF</w>": 4395,
  "enables</w>": 4396,
  "personality</w>": 4397,
  "redox</w>": 4398,
  "WT</w>": 4399,
  "3.7</w>": 4400,
  "motif</w>": 4401,
  "connectivity</w>": 4402,
  "SLE</w>": 4403,
  "ens</w>": 4404,
  "protected</w>": 4405,
  "acetylcholine</w>": 4406,
  "neonates</w>": 4407,
  "Mo": 4408,
  "androgen</w>": 4409,
  "Ap": 4410,
  "den": 4411,
  "concurrent</w>": 4412,
  "nicotine</w>": 4413,
  "currents</w>": 4414,
  "displacement</w>": 4415,
  "com": 4416,
  "ecological</w>": 4417,
  "mono": 4418,
  "None</w>": 4419,
  "vertebral</w>": 4420,
  "excitation</w>": 4421,
  "coordination</w>": 4422,
  "CP": 4423,
  "LD</w>": 4424,
  "PS": 4425,
  "flux</w>": 4426,
  "uncommon</w>": 4427,
  "CB": 4428,
  "metals</w>": 4429,
  "lymphoid</w>": 4430,
  "i.v.</w>": 4431,
  "chicken</w>": 4432,
  "session</w>": 4433,
  "ligament</w>": 4434,
  "staging</w>": 4435,
  "renin</w>": 4436,
  "ACE</w>": 4437,
  "pneumoniae</w>": 4438,
  "br": 4439,
  "opathy</w>": 4440,
  "indication</w>": 4441,
  "PSA</w>": 4442,
  "but": 4443,
  "SH</w>": 4444,
  "optimization</w>": 4445,
  "2007</w>": 4446,
  "orally</w>": 4447,
  "Different</w>": 4448,
  "spontaneously</w>": 4449,
  "superficial</w>": 4450,
  "2005</w>": 4451,
  "foods</w>": 4452,
  "neoplastic</w>": 4453,
  "aerobic</w>": 4454,
  "supplemented</w>": 4455,
  "out": 4456,
  "Ne": 4457,
  "man": 4458,
  "spp</w>": 4459,
  "leukocyte</w>": 4460,
  "cerebellar</w>": 4461,
  "germ</w>": 4462,
  "nodules</w>": 4463,
  "ised</w>": 4464,
  "ast": 4465,
  "linking</w>": 4466,
  "item</w>": 4467,
  "muscular</w>": 4468,
  "Department</w>": 4469,
  "Seven</w>": 4470,
  "oste": 4471,
  "pent": 4472,
  "dysplasia</w>": 4473,
  "systematically</w>": 4474,
  "Fe": 4475,
  "NT</w>": 4476,
  "0.002</w>": 4477,
  "saturation</w>": 4478,
  "testicular</w>": 4479,
  "IL": 4480,
  "110</w>": 4481,
  "category</w>": 4482,
  "exclusively</w>": 4483,
  "Model</w>": 4484,
  "physiology</w>": 4485,
  "weights</w>": 4486,
  "radio": 4487,
  "surgeon</w>": 4488,
  "effector</w>": 4489,
  "restored</w>": 4490,
  "analogues</w>": 4491,
  "insufficiency</w>": 4492,
  "concepts</w>": 4493,
  "lineage</w>": 4494,
  "too</w>": 4495,
  "width</w>": 4496,
  "histology</w>": 4497,
  "Time</w>": 4498,
  "4.2</w>": 4499,
  "declined</w>": 4500,
  "empirical</w>": 4501,
  "clarify</w>": 4502,
  "eu": 4503,
  "alpha": 4504,
  "April</w>": 4505,
  "6.5</w>": 4506,
  "flexible</w>": 4507,
  "MC</w>": 4508,
  "instead</w>": 4509,
  "Ser": 4510,
  "vectors</w>": 4511,
  "injured</w>": 4512,
  "follicular</w>": 4513,
  "so": 4514,
  "overweight</w>": 4515,
  "aspiration</w>": 4516,
  "GSH</w>": 4517,
  "antitumor</w>": 4518,
  "equally</w>": 4519,
  "0.8": 4520,
  "fruit</w>": 4521,
  "Given</w>": 4522,
  "rhythm</w>": 4523,
  "ART</w>": 4524,
  "isation</w>": 4525,
  "tically</w>": 4526,
  "filter</w>": 4527,
  "sense</w>": 4528,
  "plan</w>": 4529,
  "referral</w>": 4530,
  "believed</w>": 4531,
  "reflux</w>": 4532,
  "Similar</w>": 4533,
  "embedded</w>": 4534,
  "analogue</w>": 4535,
  "CE</w>": 4536,
  "der</w>": 4537,
  "Eight</w>": 4538,
  "_</w>": 4539,
  "opposite</w>": 4540,
  "sucrose</w>": 4541,
  "algorithms</w>": 4542,
  "rRNA</w>": 4543,
  "14C</w>": 4544,
  "library</w>": 4545,
  "B2</w>": 4546,
  "rank</w>": 4547,
  "slight</w>": 4548,
  "2001</w>": 4549,
  "4,": 4550,
  "dl</w>": 4551,
  "29": 4552,
  "2A</w>": 4553,
  "headache</w>": 4554,
  "fitness</w>": 4555,
  "3.6</w>": 4556,
  "gradually</w>": 4557,
  "orbital</w>": 4558,
  "accelerated</w>": 4559,
  "aneurysms</w>": 4560,
  "Subjects</w>": 4561,
  "tics</w>": 4562,
  "marine</w>": 4563,
  "Gs</w>": 4564,
  "ice</w>": 4565,
  "000</w>": 4566,
  "tone</w>": 4567,
  "acetic</w>": 4568,
  "bipolar</w>": 4569,
  "acetyl</w>": 4570,
  "approved</w>": 4571,
  "RF</w>": 4572,
  "1999</w>": 4573,
  "conditioned</w>": 4574,
  "utilizing</w>": 4575,
  "dense</w>": 4576,
  "transferase</w>": 4577,
  "fertility</w>": 4578,
  "stere": 4579,
  "R1</w>": 4580,
  "colitis</w>": 4581,
  "shear</w>": 4582,
  "tendency</w>": 4583,
  "tor": 4584,
  "ard</w>": 4585,
  "Europe</w>": 4586,
  "object</w>": 4587,
  "anomalies</w>": 4588,
  "English</w>": 4589,
  "1990</w>": 4590,
  "catalyzed</w>": 4591,
  "surveys</w>": 4592,
  "1A</w>": 4593,
  "usefulness</w>": 4594,
  "undergone</w>": 4595,
  "Heart</w>": 4596,
  "kidneys</w>": 4597,
  "thrombin</w>": 4598,
  "och": 4599,
  "leptin</w>": 4600,
  "Na": 4601,
  "Tumor</w>": 4602,
  "2006</w>": 4603,
  "glial</w>": 4604,
  "emphasis</w>": 4605,
  "and": 4606,
  "exposures</w>": 4607,
  "ethnic</w>": 4608,
  "swelling</w>": 4609,
  "hearts</w>": 4610,
  "ella</w>": 4611,
  "arthroplasty</w>": 4612,
  "90": 4613,
  "conservative</w>": 4614,
  "helpful</w>": 4615,
  "lupus</w>": 4616,
  "&apos;": 4617,
  "controversial</w>": 4618,
  "atoms</w>": 4619,
  "Central</w>": 4620,
  "NMDA</w>": 4621,
  "Experimental</w>": 4622,
  "distinguish</w>": 4623,
  "usual</w>": 4624,
  "locally</w>": 4625,
  "periodontal</w>": 4626,
  "driving</w>": 4627,
  "RI": 4628,
  "Synthesis</w>": 4629,
  "translational</w>": 4630,
  "1998</w>": 4631,
  "immunofluorescence</w>": 4632,
  "gait</w>": 4633,
  "600</w>": 4634,
  "fer": 4635,
  "statistics</w>": 4636,
  "share</w>": 4637,
  "birds</w>": 4638,
  "transmembrane</w>": 4639,
  "ym": 4640,
  "colonic</w>": 4641,
  "Outcomes</w>": 4642,
  "nitro": 4643,
  "H2</w>": 4644,
  "reporter</w>": 4645,
  "patch</w>": 4646,
  "pseud": 4647,
  "cap": 4648,
  "reflected</w>": 4649,
  "miRNA</w>": 4650,
  "P3</w>": 4651,
  "lifestyle</w>": 4652,
  "inactive</w>": 4653,
  "mar": 4654,
  "upregulated</w>": 4655,
  "ideal</w>": 4656,
  "BMD</w>": 4657,
  "RP</w>": 4658,
  "alignment</w>": 4659,
  "PL</w>": 4660,
  "Surgery</w>": 4661,
  "perioperative</w>": 4662,
  "dark</w>": 4663,
  "Nevertheless</w>": 4664,
  "immuno": 4665,
  "Sp": 4666,
  "HR": 4667,
  "pharmacokinetic</w>": 4668,
  "antiviral</w>": 4669,
  "cessation</w>": 4670,
  "CoA</w>": 4671,
  "lu": 4672,
  "My": 4673,
  "anticancer</w>": 4674,
  "neuropathy</w>": 4675,
  "NS": 4676,
  "Quantitative</w>": 4677,
  "served</w>": 4678,
  "mood</w>": 4679,
  "hypothalamic</w>": 4680,
  "fourth</w>": 4681,
  "clone</w>": 4682,
  "mandibular</w>": 4683,
  "possess</w>": 4684,
  "ost": 4685,
  "triggered</w>": 4686,
  "MM": 4687,
  "idine</w>": 4688,
  "7.4</w>": 4689,
  "division</w>": 4690,
  "opportunity</w>": 4691,
  "26": 4692,
  "MAP</w>": 4693,
  "dr": 4694,
  "GR": 4695,
  "Similarly</w>": 4696,
  "recordings</w>": 4697,
  "ve": 4698,
  "electrodes</w>": 4699,
  "acoustic</w>": 4700,
  "Australia</w>": 4701,
  "dexamethasone</w>": 4702,
  "HE": 4703,
  "MAPK</w>": 4704,
  "lymph": 4705,
  "SU": 4706,
  "waves</w>": 4707,
  "BA</w>": 4708,
  "preservation</w>": 4709,
  "0.7": 4710,
  "centre</w>": 4711,
  "usage</w>": 4712,
  "analgesia</w>": 4713,
  "SNPs</w>": 4714,
  "ical</w>": 4715,
  "offered</w>": 4716,
  "Questionnaire</w>": 4717,
  "attached</w>": 4718,
  "balloon</w>": 4719,
  "cyt": 4720,
  "transferred</w>": 4721,
  "ana</w>": 4722,
  "phen": 4723,
  "prescription</w>": 4724,
  "ankle</w>": 4725,
  "AF": 4726,
  "user</w>": 4727,
  "examining</w>": 4728,
  "partly</w>": 4729,
  "Future</w>": 4730,
  "LE": 4731,
  "genomes</w>": 4732,
  "pore</w>": 4733,
  "anion</w>": 4734,
  "Detection</w>": 4735,
  "dosing</w>": 4736,
  "SW": 4737,
  "SDS</w>": 4738,
  "NC": 4739,
  "70": 4740,
  "eg": 4741,
  "influencing</w>": 4742,
  "attempts</w>": 4743,
  "alanine</w>": 4744,
  "meal</w>": 4745,
  "Ms</w>": 4746,
  "Sixty</w>": 4747,
  "hemodialysis</w>": 4748,
  "preserved</w>": 4749,
  "paradigm</w>": 4750,
  "examples</w>": 4751,
  "Pl": 4752,
  "investigating</w>": 4753,
  "st</w>": 4754,
  "forward</w>": 4755,
  "neoplasms</w>": 4756,
  "insufficient</w>": 4757,
  "IF": 4758,
  "Cr</w>": 4759,
  "glioma</w>": 4760,
  "RA": 4761,
  "cytosolic</w>": 4762,
  "Akt</w>": 4763,
  "cohorts</w>": 4764,
  "AB</w>": 4765,
  "cy": 4766,
  "extensively</w>": 4767,
  "ch</w>": 4768,
  "Gram</w>": 4769,
  "pooled</w>": 4770,
  "Am": 4771,
  "1995</w>": 4772,
  "CE": 4773,
  "mediators</w>": 4774,
  "opening</w>": 4775,
  "Asian</w>": 4776,
  "precursors</w>": 4777,
  "youth</w>": 4778,
  "est": 4779,
  "again</w>": 4780,
  "1997</w>": 4781,
  "socioeconomic</w>": 4782,
  "--</w>": 4783,
  "ethylene</w>": 4784,
  "ve</w>": 4785,
  "State</w>": 4786,
  "son</w>": 4787,
  "Bio": 4788,
  "functionally</w>": 4789,
  "Qu": 4790,
  "Bacillus</w>": 4791,
  "epidemiology</w>": 4792,
  "Wistar</w>": 4793,
  "immunotherapy</w>": 4794,
  "ence</w>": 4795,
  "enter": 4796,
  "L.</w>": 4797,
  "ac</w>": 4798,
  "olfactory</w>": 4799,
  "nano": 4800,
  "upstream</w>": 4801,
  "3.9</w>": 4802,
  "4.1</w>": 4803,
  "ADHD</w>": 4804,
  "COVID</w>": 4805,
  "gram</w>": 4806,
  "prosthesis</w>": 4807,
  "distant</w>": 4808,
  "EM": 4809,
  "university</w>": 4810,
  "GP</w>": 4811,
  "themselves</w>": 4812,
  "0.00": 4813,
  "anaerobic</w>": 4814,
  "Differences</w>": 4815,
  "COX</w>": 4816,
  "FSH</w>": 4817,
  "box</w>": 4818,
  "amplified</w>": 4819,
  "September</w>": 4820,
  "goals</w>": 4821,
  "ultrasonography</w>": 4822,
  "aspect</w>": 4823,
  "ganglion</w>": 4824,
  "sound</w>": 4825,
  "PubMed</w>": 4826,
  "connected</w>": 4827,
  "ha": 4828,
  "threatening</w>": 4829,
  "6.0</w>": 4830,
  "dramatically</w>": 4831,
  "assist</w>": 4832,
  "NE</w>": 4833,
  "World</w>": 4834,
  "covered</w>": 4835,
  "monkeys</w>": 4836,
  "axons</w>": 4837,
  "pharmacokinetics</w>": 4838,
  "0.25</w>": 4839,
  "mixtures</w>": 4840,
  "2002</w>": 4841,
  "lowering</w>": 4842,
  "125I</w>": 4843,
  "S2</w>": 4844,
  "osteoporosis</w>": 4845,
  "tandem</w>": 4846,
  "valid</w>": 4847,
  "instruments</w>": 4848,
  "becomes</w>": 4849,
  "ta": 4850,
  "defense</w>": 4851,
  "chosen</w>": 4852,
  "transcript</w>": 4853,
  "extra</w>": 4854,
  "haem": 4855,
  "serial</w>": 4856,
  "innate</w>": 4857,
  "DISCUSSION</w>": 4858,
  "helix</w>": 4859,
  "Administration</w>": 4860,
  "quite</w>": 4861,
  "CVD</w>": 4862,
  "U.S.</w>": 4863,
  "ulation</w>": 4864,
  "Impact</w>": 4865,
  "biomass</w>": 4866,
  "emergence</w>": 4867,
  "expanded</w>": 4868,
  "atomic</w>": 4869,
  "circadian</w>": 4870,
  "As": 4871,
  "resin</w>": 4872,
  "applying</w>": 4873,
  "adjusting</w>": 4874,
  "similarly</w>": 4875,
  "contaminated</w>": 4876,
  "C2</w>": 4877,
  "ay</w>": 4878,
  "Bone</w>": 4879,
  "D3</w>": 4880,
  "immunoreactive</w>": 4881,
  "analog</w>": 4882,
  "stored</w>": 4883,
  "October</w>": 4884,
  "graphene</w>": 4885,
  "caregivers</w>": 4886,
  "shifts</w>": 4887,
  "specimen</w>": 4888,
  "HM": 4889,
  "emic</w>": 4890,
  "inverse</w>": 4891,
  "property</w>": 4892,
  "relief</w>": 4893,
  "eggs</w>": 4894,
  "ppm</w>": 4895,
  "retro": 4896,
  "iso": 4897,
  "ls</w>": 4898,
  "Brain</w>": 4899,
  "manual</w>": 4900,
  "Mg</w>": 4901,
  "defective</w>": 4902,
  "PEG</w>": 4903,
  "cigarette</w>": 4904,
  "lysine</w>": 4905,
  "configuration</w>": 4906,
  "NC</w>": 4907,
  "throughput</w>": 4908,
  "ling</w>": 4909,
  "1996</w>": 4910,
  "progenitor</w>": 4911,
  "ters</w>": 4912,
  "elastic</w>": 4913,
  "ovary</w>": 4914,
  "terminus</w>": 4915,
  "histopathological</w>": 4916,
  "art</w>": 4917,
  "GI</w>": 4918,
  "table</w>": 4919,
  "ments</w>": 4920,
  "Arabidopsis</w>": 4921,
  "sometimes</w>": 4922,
  "took</w>": 4923,
  "copy</w>": 4924,
  "novo</w>": 4925,
  "burn</w>": 4926,
  "chemicals</w>": 4927,
  "completion</w>": 4928,
  "diarrhea</w>": 4929,
  "Institute</w>": 4930,
  "MSCs</w>": 4931,
  "nucleotides</w>": 4932,
  "DP</w>": 4933,
  "fungi</w>": 4934,
  "Novel</w>": 4935,
  "clinics</w>": 4936,
  "naturally</w>": 4937,
  "anatomic</w>": 4938,
  "Bcl</w>": 4939,
  "microbiota</w>": 4940,
  "NI": 4941,
  "Therapy</w>": 4942,
  "descriptive</w>": 4943,
  "zero</w>": 4944,
  "Median</w>": 4945,
  "wt</w>": 4946,
  "incomplete</w>": 4947,
  "cardiomyopathy</w>": 4948,
  "conductance</w>": 4949,
  "comprising</w>": 4950,
  "Medicine</w>": 4951,
  "interview</w>": 4952,
  "ogram</w>": 4953,
  "GS</w>": 4954,
  "grafting</w>": 4955,
  "3.8</w>": 4956,
  "scheme</w>": 4957,
  "uniform</w>": 4958,
  "season</w>": 4959,
  "phospholipid</w>": 4960,
  "cholinergic</w>": 4961,
  "predictions</w>": 4962,
  "contributions</w>": 4963,
  "1a</w>": 4964,
  "night</w>": 4965,
  "seeking</w>": 4966,
  "breeding</w>": 4967,
  "sudden</w>": 4968,
  "IR": 4969,
  "hal": 4970,
  "matching</w>": 4971,
  "Hodgkin</w>": 4972,
  "cur": 4973,
  "4.8</w>": 4974,
  "frozen</w>": 4975,
  "cerevisiae</w>": 4976,
  "scoring</w>": 4977,
  "violence</w>": 4978,
  "TSH</w>": 4979,
  "microscope</w>": 4980,
  "schools</w>": 4981,
  "MDA</w>": 4982,
  "neurologic</w>": 4983,
  "Then</w>": 4984,
  "2004</w>": 4985,
  "deprivation</w>": 4986,
  "5,": 4987,
  "unable</w>": 4988,
  "Northern</w>": 4989,
  "cat</w>": 4990,
  "constants</w>": 4991,
  "NaCl</w>": 4992,
  "aspartate</w>": 4993,
  "granules</w>": 4994,
  "leukocytes</w>": 4995,
  "PTSD</w>": 4996,
  "lip": 4997,
  "erythrocyte</w>": 4998,
  "rh": 4999,
  "C3</w>": 5000,
  "pal": 5001,
  "syn": 5002,
  "7.0</w>": 5003,
  "chloro": 5004,
  "Specific</w>": 5005,
  "Hb</w>": 5006,
  "perfused</w>": 5007,
  "®</w>": 5008,
  "3.3</w>": 5009,
  "construction</w>": 5010,
  "ASD</w>": 5011,
  "ejection</w>": 5012,
  "ist</w>": 5013,
  "partners</w>": 5014,
  "pres": 5015,
  "intense</w>": 5016,
  "140</w>": 5017,
  "ile</w>": 5018,
  "Cross</w>": 5019,
  "atory</w>": 5020,
  "phage</w>": 5021,
  "magnesium</w>": 5022,
  "ud": 5023,
  "fibres</w>": 5024,
  "tip</w>": 5025,
  "WHO</w>": 5026,
  "CKD</w>": 5027,
  "G2</w>": 5028,
  "anal</w>": 5029,
  "cyclase</w>": 5030,
  "CF": 5031,
  "stratified</w>": 5032,
  "MM</w>": 5033,
  "Hence</w>": 5034,
  "ge": 5035,
  "heter": 5036,
  "4.3</w>": 5037,
  "lasting</w>": 5038,
  "cyclin</w>": 5039,
  "athletes</w>": 5040,
  "sk": 5041,
  "myocardium</w>": 5042,
  "assumed</w>": 5043,
  "waste</w>": 5044,
  "Anti</w>": 5045,
  "pre-</w>": 5046,
  "HSV</w>": 5047,
  "Brazil</w>": 5048,
  "ocytes</w>": 5049,
  "stabilization</w>": 5050,
  "Cor": 5051,
  "fashion</w>": 5052,
  "E1</w>": 5053,
  "ses</w>": 5054,
  "discusses</w>": 5055,
  "aro": 5056,
  "finger</w>": 5057,
  "ize</w>": 5058,
  "cation</w>": 5059,
  "words</w>": 5060,
  "conjugated</w>": 5061,
  "aspirin</w>": 5062,
  "cues</w>": 5063,
  "minimally</w>": 5064,
  "ore": 5065,
  "LT</w>": 5066,
  "labor</w>": 5067,
  "bulk</w>": 5068,
  "MATERIAL</w>": 5069,
  "numerical</w>": 5070,
  "mammals</w>": 5071,
  "competition</w>": 5072,
  "ligation</w>": 5073,
  "sal": 5074,
  "hy": 5075,
  "molar</w>": 5076,
  "Candida</w>": 5077,
  "TP</w>": 5078,
  "transmitted</w>": 5079,
  "glycine</w>": 5080,
  "MB</w>": 5081,
  "-3</w>": 5082,
  "ur</w>": 5083,
  "private</w>": 5084,
  "restoration</w>": 5085,
  "5.2</w>": 5086,
  "idi": 5087,
  "hex": 5088,
  "Oral</w>": 5089,
  "verified</w>": 5090,
  "electrochemical</w>": 5091,
  "inf": 5092,
  "arising</w>": 5093,
  "additive</w>": 5094,
  "machine</w>": 5095,
  "silver</w>": 5096,
  "thresholds</w>": 5097,
  "FINDINGS</w>": 5098,
  "informed</w>": 5099,
  "tracking</w>": 5100,
  "PH</w>": 5101,
  "mes": 5102,
  "contractile</w>": 5103,
  "encodes</w>": 5104,
  "Activity</w>": 5105,
  "mast</w>": 5106,
  "TF": 5107,
  "4.7</w>": 5108,
  "meth": 5109,
  "inadequate</w>": 5110,
  "acetyl": 5111,
  "immature</w>": 5112,
  "EBV</w>": 5113,
  "OUTCOME</w>": 5114,
  "efflux</w>": 5115,
  "atom</w>": 5116,
  "fear</w>": 5117,
  "DL": 5118,
  "policies</w>": 5119,
  "elective</w>": 5120,
  "ends</w>": 5121,
  "cranial</w>": 5122,
  "mediating</w>": 5123,
  "PF</w>": 5124,
  "Comparative</w>": 5125,
  "esters</w>": 5126,
  "ACTH</w>": 5127,
  "AML</w>": 5128,
  "dimethyl": 5129,
  "enrichment</w>": 5130,
  "Mycobacterium</w>": 5131,
  "industrial</w>": 5132,
  "pollution</w>": 5133,
  "continuously</w>": 5134,
  "interpreted</w>": 5135,
  "HL</w>": 5136,
  "dL</w>": 5137,
  "Multi": 5138,
  "phosph": 5139,
  "4.4</w>": 5140,
  "prostatic</w>": 5141,
  "circular</w>": 5142,
  "optimum</w>": 5143,
  "coping</w>": 5144,
  "-5</w>": 5145,
  "quantitatively</w>": 5146,
  "ME</w>": 5147,
  "TBI</w>": 5148,
  "9.5</w>": 5149,
  "ven": 5150,
  "Information</w>": 5151,
  "blotting</w>": 5152,
  "22": 5153,
  "tibial</w>": 5154,
  "fluids</w>": 5155,
  "Growth</w>": 5156,
  "ering</w>": 5157,
  "designated</w>": 5158,
  "conditioning</w>": 5159,
  "parasites</w>": 5160,
  "generating</w>": 5161,
  "allo": 5162,
  "autonomic</w>": 5163,
  "antibacterial</w>": 5164,
  "8.5</w>": 5165,
  "incident</w>": 5166,
  "epigenetic</w>": 5167,
  "maps</w>": 5168,
  "sign</w>": 5169,
  "separately</w>": 5170,
  "hypoxic</w>": 5171,
  "conservation</w>": 5172,
  "remarkable</w>": 5173,
  "4.6</w>": 5174,
  "peroxidation</w>": 5175,
  "H1</w>": 5176,
  "shell</w>": 5177,
  "80": 5178,
  "polymers</w>": 5179,
  "aemia</w>": 5180,
  "DO": 5181,
  "Immun": 5182,
  "maxillary</w>": 5183,
  "applicable</w>": 5184,
  "autosomal</w>": 5185,
  "cerebrospinal</w>": 5186,
  "branch</w>": 5187,
  "Findings</w>": 5188,
  "sulf": 5189,
  "persistence</w>": 5190,
  "triple</w>": 5191,
  "Canada</w>": 5192,
  "moderately</w>": 5193,
  "chemically</w>": 5194,
  "Se": 5195,
  "tRNA</w>": 5196,
  "interesting</w>": 5197,
  "giant</w>": 5198,
  ".01</w>": 5199,
  "ding</w>": 5200,
  "enough</w>": 5201,
  "ari": 5202,
  "ech": 5203,
  "endemic</w>": 5204,
  "exclusion</w>": 5205,
  "achieving</w>": 5206,
  "der": 5207,
  "cellulose</w>": 5208,
  "gives</w>": 5209,
  "she</w>": 5210,
  "intermittent</w>": 5211,
  "Phase</w>": 5212,
  "transplanted</w>": 5213,
  "purposes</w>": 5214,
  "epidemic</w>": 5215,
  "40": 5216,
  "2003</w>": 5217,
  "myosin</w>": 5218,
  "1994</w>": 5219,
  "elucidated</w>": 5220,
  "perspectives</w>": 5221,
  "ON": 5222,
  "5.3</w>": 5223,
  "50": 5224,
  "polar</w>": 5225,
  "ites</w>": 5226,
  "lysis</w>": 5227,
  "revision</w>": 5228,
  "testis</w>": 5229,
  "tro": 5230,
  "inpatient</w>": 5231,
  "promotion</w>": 5232,
  "fetuses</w>": 5233,
  "Met": 5234,
  "recommend</w>": 5235,
  "LS</w>": 5236,
  "manipulation</w>": 5237,
  "tau</w>": 5238,
  "postpartum</w>": 5239,
  "abnormality</w>": 5240,
  "bonding</w>": 5241,
  "Retrospective</w>": 5242,
  "dermal</w>": 5243,
  "biofilm</w>": 5244,
  "massive</w>": 5245,
  "flexion</w>": 5246,
  "accumulated</w>": 5247,
  "noninvasive</w>": 5248,
  "tom": 5249,
  "microorganisms</w>": 5250,
  "behavioural</w>": 5251,
  "crystals</w>": 5252,
  "ran": 5253,
  "Statistical</w>": 5254,
  "ab</w>": 5255,
  "list</w>": 5256,
  "4-</w>": 5257,
  "ambulatory</w>": 5258,
  "Social</w>": 5259,
  "101</w>": 5260,
  "anaesthesia</w>": 5261,
  "causal</w>": 5262,
  "ea</w>": 5263,
  "representation</w>": 5264,
  "NE": 5265,
  "CN</w>": 5266,
  "courses</w>": 5267,
  "diffraction</w>": 5268,
  "Cochrane</w>": 5269,
  "suspension</w>": 5270,
  "integrin</w>": 5271,
  "tachycardia</w>": 5272,
  "ma</w>": 5273,
  "NR": 5274,
  "duodenal</w>": 5275,
  "Prospective</w>": 5276,
  "pharmaceutical</w>": 5277,
  "adopted</w>": 5278,
  "silica</w>": 5279,
  "horizontal</w>": 5280,
  "oriented</w>": 5281,
  "ure</w>": 5282,
  "inoculated</w>": 5283,
  "ula</w>": 5284,
  "assayed</w>": 5285,
  "splicing</w>": 5286,
  "tu": 5287,
  "episode</w>": 5288,
  "ving</w>": 5289,
  "Prevalence</w>": 5290,
  "relations</w>": 5291,
  "ranges</w>": 5292,
  "ros": 5293,
  "focuses</w>": 5294,
  "destruction</w>": 5295,
  "lesser</w>": 5296,
  "flu": 5297,
  "filled</w>": 5298,
  "pi": 5299,
  "standing</w>": 5300,
  "contractions</w>": 5301,
  "latent</w>": 5302,
  "IV": 5303,
  "cure</w>": 5304,
  "lifetime</w>": 5305,
  "ago</w>": 5306,
  "PTH</w>": 5307,
  "Depression</w>": 5308,
  "inserted</w>": 5309,
  "450</w>": 5310,
  "LP</w>": 5311,
  "bacterium</w>": 5312,
  "extremity</w>": 5313,
  "transfection</w>": 5314,
  "lipopolysaccharide</w>": 5315,
  "sing</w>": 5316,
  "5.6</w>": 5317,
  "ke": 5318,
  "carb": 5319,
  "R2</w>": 5320,
  "building</w>": 5321,
  "definitive</w>": 5322,
  "edge</w>": 5323,
  "photon</w>": 5324,
  "norepinephrine</w>": 5325,
  "Sch": 5326,
  "why</w>": 5327,
  "nitrate</w>": 5328,
  "joints</w>": 5329,
  "disturbance</w>": 5330,
  "EB": 5331,
  "astrocytes</w>": 5332,
  "porous</w>": 5333,
  "USA</w>": 5334,
  "cop": 5335,
  "peaks</w>": 5336,
  "Mn</w>": 5337,
  "AE</w>": 5338,
  "intra": 5339,
  "~</w>": 5340,
  "engagement</w>": 5341,
  "profiling</w>": 5342,
  "surgically</w>": 5343,
  "capsule</w>": 5344,
  "μm</w>": 5345,
  "analyzing</w>": 5346,
  "converted</w>": 5347,
  "perinatal</w>": 5348,
  "sea</w>": 5349,
  "recipient</w>": 5350,
  "partner</w>": 5351,
  "multicenter</w>": 5352,
  "Pain</w>": 5353,
  "sequenced</w>": 5354,
  "meet</w>": 5355,
  "suppress</w>": 5356,
  "septic</w>": 5357,
  "formulations</w>": 5358,
  "connection</w>": 5359,
  "interacting</w>": 5360,
  "Ag": 5361,
  "homogeneous</w>": 5362,
  "examines</w>": 5363,
  "nonlinear</w>": 5364,
  "crude</w>": 5365,
  "masses</w>": 5366,
  "recognize</w>": 5367,
  "AV": 5368,
  "prolactin</w>": 5369,
  "capability</w>": 5370,
  "-induced</w>": 5371,
  "Diabetes</w>": 5372,
  "charged</w>": 5373,
  "objectives</w>": 5374,
  "heme</w>": 5375,
  "suffered</w>": 5376,
  "details</w>": 5377,
  "reaching</w>": 5378,
  "foreign</w>": 5379,
  "Physical</w>": 5380,
  "deterioration</w>": 5381,
  "Imaging</w>": 5382,
  "angi": 5383,
  "stranded</w>": 5384,
  "adenoma</w>": 5385,
  "AG</w>": 5386,
  "prevents</w>": 5387,
  "pan": 5388,
  "Cardiac</w>": 5389,
  "financial</w>": 5390,
  "phenomena</w>": 5391,
  "discrete</w>": 5392,
  "palliative</w>": 5393,
  "August</w>": 5394,
  "s.": 5395,
  "Streptococcus</w>": 5396,
  "oscopy</w>": 5397,
  "val": 5398,
  "Ni</w>": 5399,
  "SOD</w>": 5400,
  "chem": 5401,
  "evaluations</w>": 5402,
  "papillary</w>": 5403,
  "BR": 5404,
  "striatum</w>": 5405,
  "can": 5406,
  "Influence</w>": 5407,
  "synergistic</w>": 5408,
  "codon</w>": 5409,
  "ities</w>": 5410,
  "considerations</w>": 5411,
  "picture</w>": 5412,
  "ich": 5413,
  "regulators</w>": 5414,
  "mitotic</w>": 5415,
  "validate</w>": 5416,
  "IS</w>": 5417,
  "establishment</w>": 5418,
  "How</w>": 5419,
  "postmenopausal</w>": 5420,
  "5.8</w>": 5421,
  "entity</w>": 5422,
  "endoscopy</w>": 5423,
  "anastomosis</w>": 5424,
  "unstable</w>": 5425,
  "umbilical</w>": 5426,
  "ED": 5427,
  "ensis</w>": 5428,
  "ists</w>": 5429,
  "extreme</w>": 5430,
  "run</w>": 5431,
  "Pb</w>": 5432,
  "bu": 5433,
  "illustrate</w>": 5434,
  "replaced</w>": 5435,
  "melatonin</w>": 5436,
  "SH": 5437,
  "select</w>": 5438,
  "amino": 5439,
  "ML": 5440,
  "Renal</w>": 5441,
  "5.4</w>": 5442,
  "modulating</w>": 5443,
  "Bo": 5444,
  "enabled</w>": 5445,
  "obvious</w>": 5446,
  "insurance</w>": 5447,
  "antigenic</w>": 5448,
  "macular</w>": 5449,
  "exploration</w>": 5450,
  "-6</w>": 5451,
  "PARTICIPANTS</w>": 5452,
  "ulated</w>": 5453,
  "constitute</w>": 5454,
  "compatible</w>": 5455,
  "student</w>": 5456,
  "Understanding</w>": 5457,
  "ass": 5458,
  "SCC</w>": 5459,
  "aggregates</w>": 5460,
  "glycerol</w>": 5461,
  "determinant</w>": 5462,
  "gluc": 5463,
  "ow": 5464,
  "geometry</w>": 5465,
  "catenin</w>": 5466,
  "amines</w>": 5467,
  "ingestion</w>": 5468,
  "Report</w>": 5469,
  "penetration</w>": 5470,
  "mor": 5471,
  "forced</w>": 5472,
  "transforming</w>": 5473,
  "owing</w>": 5474,
  "Additional</w>": 5475,
  "parietal</w>": 5476,
  "neurodegenerative</w>": 5477,
  "lumen</w>": 5478,
  "ist": 5479,
  "oxidized</w>": 5480,
  "ERK</w>": 5481,
  "directions</w>": 5482,
  "intraocular</w>": 5483,
  "radiographs</w>": 5484,
  "ribosomal</w>": 5485,
  "benzene</w>": 5486,
  "ay": 5487,
  "held</w>": 5488,
  "attributable</w>": 5489,
  "MB": 5490,
  "comorbidities</w>": 5491,
  "rule</w>": 5492,
  "Diagnosis</w>": 5493,
  "radicals</w>": 5494,
  "GnRH</w>": 5495,
  "principle</w>": 5496,
  "peroxide</w>": 5497,
  "contacts</w>": 5498,
  "mV</w>": 5499,
  "TR</w>": 5500,
  "TT</w>": 5501,
  "dimer</w>": 5502,
  "era</w>": 5503,
  "myeloma</w>": 5504,
  "Gu": 5505,
  "carcinogenesis</w>": 5506,
  "130</w>": 5507,
  "peer</w>": 5508,
  "SNP</w>": 5509,
  "folding</w>": 5510,
  "attenuation</w>": 5511,
  "slices</w>": 5512,
  "hot</w>": 5513,
  "ulcers</w>": 5514,
  "HO": 5515,
  "arise</w>": 5516,
  "Post</w>": 5517,
  "6.3</w>": 5518,
  "septal</w>": 5519,
  "ded</w>": 5520,
  "ward</w>": 5521,
  "Liver</w>": 5522,
  "drop</w>": 5523,
  "ganglia</w>": 5524,
  "modify</w>": 5525,
  "equations</w>": 5526,
  "trigger</w>": 5527,
  "fibrinogen</w>": 5528,
  "asymmetric</w>": 5529,
  "equipment</w>": 5530,
  "ethical</w>": 5531,
  "tracheal</w>": 5532,
  "1992</w>": 5533,
  "consistency</w>": 5534,
  "hypothalamus</w>": 5535,
  "ologically</w>": 5536,
  "alcoholic</w>": 5537,
  "yc": 5538,
  "1993</w>": 5539,
  "caries</w>": 5540,
  "ys</w>": 5541,
  "chromatographic</w>": 5542,
  "sions</w>": 5543,
  "sum</w>": 5544,
  "shunt</w>": 5545,
  "res</w>": 5546,
  "analgesic</w>": 5547,
  "pin": 5548,
  "mo</w>": 5549,
  "otherwise</w>": 5550,
  "becoming</w>": 5551,
  "160</w>": 5552,
  "SB": 5553,
  "formula</w>": 5554,
  "C57BL</w>": 5555,
  "ethyl": 5556,
  "upregulation</w>": 5557,
  "ise</w>": 5558,
  "isoform</w>": 5559,
  "au": 5560,
  "kin": 5561,
  "lithium</w>": 5562,
  "ratings</w>": 5563,
  "apply</w>": 5564,
  "juvenile</w>": 5565,
  "anesthetized</w>": 5566,
  "exert</w>": 5567,
  "dopaminergic</w>": 5568,
  "immunosorbent</w>": 5569,
  "calculation</w>": 5570,
  "fin": 5571,
  "rel": 5572,
  "cataract</w>": 5573,
  "stimulates</w>": 5574,
  "ff": 5575,
  "60": 5576,
  "summarize</w>": 5577,
  "105</w>": 5578,
  "tim": 5579,
  "Exposure</w>": 5580,
  "bis</w>": 5581,
  "running</w>": 5582,
  "giving</w>": 5583,
  "cul": 5584,
  "preclinical</w>": 5585,
  "attractive</w>": 5586,
  "avoidance</w>": 5587,
  "knockdown</w>": 5588,
  "UC</w>": 5589,
  "ologists</w>": 5590,
  "polarization</w>": 5591,
  "mediates</w>": 5592,
  "onal</w>": 5593,
  "6.8</w>": 5594,
  "of": 5595,
  "takes</w>": 5596,
  "ang</w>": 5597,
  "Al</w>": 5598,
  "Nine</w>": 5599,
  "ole</w>": 5600,
  "ultimately</w>": 5601,
  "RN": 5602,
  "Short</w>": 5603,
  "leakage</w>": 5604,
  "counter": 5605,
  "Direct</w>": 5606,
  "surfactant</w>": 5607,
  "RI</w>": 5608,
  "meat</w>": 5609,
  "asi": 5610,
  "FT</w>": 5611,
  "pos": 5612,
  "pen": 5613,
  "outbreak</w>": 5614,
  "epitopes</w>": 5615,
  "5.9</w>": 5616,
  "iii</w>": 5617,
  "drive</w>": 5618,
  "At": 5619,
  "drawn</w>": 5620,
  "word</w>": 5621,
  "uria</w>": 5622,
  "6.4</w>": 5623,
  "1β</w>": 5624,
  "hence</w>": 5625,
  "IU</w>": 5626,
  "cardiopulmonary</w>": 5627,
  "decay</w>": 5628,
  "Even</w>": 5629,
  "physiologic</w>": 5630,
  "prone</w>": 5631,
  "hosts</w>": 5632,
  "ency</w>": 5633,
  "Application</w>": 5634,
  "angina</w>": 5635,
  "inform</w>": 5636,
  "Neither</w>": 5637,
  "ols</w>": 5638,
  "Through</w>": 5639,
  "visualization</w>": 5640,
  "HI": 5641,
  "attempted</w>": 5642,
  "subsets</w>": 5643,
  "oplasty</w>": 5644,
  "chlor": 5645,
  "5.1</w>": 5646,
  "gained</w>": 5647,
  "immunosuppressive</w>": 5648,
  "specialized</w>": 5649,
  "SV": 5650,
  "She</w>": 5651,
  "HT": 5652,
  "institutions</w>": 5653,
  "resident</w>": 5654,
  "epidural</w>": 5655,
  "believe</w>": 5656,
  "7.3</w>": 5657,
  "attending</w>": 5658,
  "ammonium</w>": 5659,
  "Cal": 5660,
  "migraine</w>": 5661,
  "veins</w>": 5662,
  "Su": 5663,
  "evolved</w>": 5664,
  "prove</w>": 5665,
  "trimester</w>": 5666,
  "ying</w>": 5667,
  "acyl</w>": 5668,
  "visceral</w>": 5669,
  "plates</w>": 5670,
  "aware</w>": 5671,
  "-4</w>": 5672,
  "attack</w>": 5673,
  "Ab": 5674,
  "epitope</w>": 5675,
  "NF": 5676,
  "ously</w>": 5677,
  "His</w>": 5678,
  "hamster</w>": 5679,
  "cloning</w>": 5680,
  "ale</w>": 5681,
  "wounds</w>": 5682,
  "blockers</w>": 5683,
  "allogeneic</w>": 5684,
  "fibro": 5685,
  "histologically</w>": 5686,
  "warranted</w>": 5687,
  "osteoarthritis</w>": 5688,
  "verbal</w>": 5689,
  "M2</w>": 5690,
  "ns</w>": 5691,
  "thymidine</w>": 5692,
  "ipsilateral</w>": 5693,
  "trace</w>": 5694,
  "Ki</w>": 5695,
  "missing</w>": 5696,
  "DF": 5697,
  "0.003</w>": 5698,
  "ND</w>": 5699,
  "mouth</w>": 5700,
  "cascade</w>": 5701,
  "fluoride</w>": 5702,
  "mu</w>": 5703,
  "fecal</w>": 5704,
  "trypsin</w>": 5705,
  "Diagnostic</w>": 5706,
  "extend</w>": 5707,
  "ste": 5708,
  "Life</w>": 5709,
  "inversely</w>": 5710,
  "allergy</w>": 5711,
  "city</w>": 5712,
  "sampled</w>": 5713,
  "hydroxylase</w>": 5714,
  "nephropathy</w>": 5715,
  "losses</w>": 5716,
  "historical</w>": 5717,
  "respiration</w>": 5718,
  "responders</w>": 5719,
  "varies</w>": 5720,
  "ina</w>": 5721,
  "7.1</w>": 5722,
  "ica</w>": 5723,
  "Indian</w>": 5724,
  "7.7</w>": 5725,
  "VI": 5726,
  "Be": 5727,
  "facilitated</w>": 5728,
  "ster": 5729,
  "7.2</w>": 5730,
  "ann": 5731,
  "What</w>": 5732,
  "allograft</w>": 5733,
  "proportions</w>": 5734,
  "enti": 5735,
  "atherosclerotic</w>": 5736,
  "smoke</w>": 5737,
  "auto": 5738,
  "switch</w>": 5739,
  "incontinence</w>": 5740,
  "Program</w>": 5741,
  "Magnetic</w>": 5742,
  "uric</w>": 5743,
  "calculate</w>": 5744,
  "quantity</w>": 5745,
  "gr": 5746,
  "5.7</w>": 5747,
  "Saccharomyces</w>": 5748,
  "excitatory</w>": 5749,
  "ograms</w>": 5750,
  "mi": 5751,
  "Australian</w>": 5752,
  "CK</w>": 5753,
  "phenol</w>": 5754,
  "ind": 5755,
  "preferences</w>": 5756,
  "PV": 5757,
  "endoplasmic</w>": 5758,
  "BS</w>": 5759,
  "adhesive</w>": 5760,
  "filaments</w>": 5761,
  "OP</w>": 5762,
  "conjunction</w>": 5763,
  "glycogen</w>": 5764,
  "prophylactic</w>": 5765,
  "GO</w>": 5766,
  "FDG</w>": 5767,
  "erg": 5768,
  "null</w>": 5769,
  "criterion</w>": 5770,
  "normalized</w>": 5771,
  "Mar": 5772,
  "stone</w>": 5773,
  "uncertainty</w>": 5774,
  "Various</w>": 5775,
  "cognition</w>": 5776,
  "ner</w>": 5777,
  "Δ": 5778,
  "incision</w>": 5779,
  "developments</w>": 5780,
  "conclusions</w>": 5781,
  "activates</w>": 5782,
  "LO": 5783,
  "mil": 5784,
  "rings</w>": 5785,
  "transverse</w>": 5786,
  "dioxide</w>": 5787,
  "hard</w>": 5788,
  "6.9</w>": 5789,
  "ever</w>": 5790,
  "Secondary</w>": 5791,
  "General</w>": 5792,
  "ionization</w>": 5793,
  "rib": 5794,
  "structurally</w>": 5795,
  "objects</w>": 5796,
  "inoculation</w>": 5797,
  "form": 5798,
  "Si": 5799,
  "doctors</w>": 5800,
  "tryptophan</w>": 5801,
  "counseling</w>": 5802,
  "limbs</w>": 5803,
  "He": 5804,
  "engineered</w>": 5805,
  "PI3K</w>": 5806,
  "twenty</w>": 5807,
  "correctly</w>": 5808,
  "observe</w>": 5809,
  "TM</w>": 5810,
  "P450</w>": 5811,
  "colonization</w>": 5812,
  "fragmentation</w>": 5813,
  "arms</w>": 5814,
  "slowly</w>": 5815,
  "Cr": 5816,
  "apparatus</w>": 5817,
  "ocyte</w>": 5818,
  "1991</w>": 5819,
  "similarities</w>": 5820,
  "cone</w>": 5821,
  "6.2</w>": 5822,
  "CHD</w>": 5823,
  "responding</w>": 5824,
  "eliminated</w>": 5825,
  "psych": 5826,
  "4.9</w>": 5827,
  "reproducibility</w>": 5828,
  "IN</w>": 5829,
  "routinely</w>": 5830,
  "filling</w>": 5831,
  "Systematic</w>": 5832,
  "ho": 5833,
  "TH</w>": 5834,
  "Multivariate</w>": 5835,
  "envelope</w>": 5836,
  "laboratories</w>": 5837,
  "hernia</w>": 5838,
  "malformations</w>": 5839,
  "reflects</w>": 5840,
  "exception</w>": 5841,
  "belonging</w>": 5842,
  "10.": 5843,
  "abscess</w>": 5844,
  "dilution</w>": 5845,
  "iodine</w>": 5846,
  "chi</w>": 5847,
  "phosphorus</w>": 5848,
  "inorganic</w>": 5849,
  "Se</w>": 5850,
  "liposomes</w>": 5851,
  "Structural</w>": 5852,
  "omes</w>": 5853,
  "Germany</w>": 5854,
  "agar</w>": 5855,
  "EMG</w>": 5856,
  "∼</w>": 5857,
  "oper": 5858,
  "knockout</w>": 5859,
  "EP</w>": 5860,
  "dispersion</w>": 5861,
  "kappaB</w>": 5862,
  "PN": 5863,
  "placenta</w>": 5864,
  "monocyte</w>": 5865,
  "essentially</w>": 5866,
  "clustering</w>": 5867,
  "horses</w>": 5868,
  "constructs</w>": 5869,
  "Raman</w>": 5870,
  "relatives</w>": 5871,
  "Trial</w>": 5872,
  "Activation</w>": 5873,
  "deoxy": 5874,
  "multidisciplinary</w>": 5875,
  "bioavailability</w>": 5876,
  "describing</w>": 5877,
  "overlap</w>": 5878,
  "coherence</w>": 5879,
  "reproducible</w>": 5880,
  "tur": 5881,
  "Food</w>": 5882,
  "inc": 5883,
  "LV": 5884,
  "fused</w>": 5885,
  "employing</w>": 5886,
  "idea</w>": 5887,
  "Breast</w>": 5888,
  "equ": 5889,
  "Small</w>": 5890,
  "TF</w>": 5891,
  "mitogen</w>": 5892,
  "Syndrome</w>": 5893,
  "les</w>": 5894,
  "Rats</w>": 5895,
  "seasonal</w>": 5896,
  "adi": 5897,
  "dairy</w>": 5898,
  "preferentially</w>": 5899,
  "expert</w>": 5900,
  "fate</w>": 5901,
  "Second</w>": 5902,
  "survived</w>": 5903,
  "predicts</w>": 5904,
  "1,2</w>": 5905,
  "slope</w>": 5906,
  "ton": 5907,
  "choline</w>": 5908,
  "TM": 5909,
  "mathematical</w>": 5910,
  "termed</w>": 5911,
  "mat": 5912,
  "insect</w>": 5913,
  "augmented</w>": 5914,
  "s--": 5915,
  "Factor</w>": 5916,
  "HP</w>": 5917,
  "ie</w>": 5918,
  "Associated</w>": 5919,
  "PK": 5920,
  "Pulmonary</w>": 5921,
  "tors</w>": 5922,
  "ther": 5923,
  "GTP</w>": 5924,
  "eukaryotic</w>": 5925,
  "damaged</w>": 5926,
  "vomiting</w>": 5927,
  "titers</w>": 5928,
  "regarded</w>": 5929,
  "February</w>": 5930,
  "fertilization</w>": 5931,
  "0.6": 5932,
  "NH": 5933,
  "alk": 5934,
  "axonal</w>": 5935,
  "ain": 5936,
  "SCs</w>": 5937,
  "aceae</w>": 5938,
  "fluoro": 5939,
  "MG</w>": 5940,
  "November</w>": 5941,
  "densities</w>": 5942,
  "influx</w>": 5943,
  "starch</w>": 5944,
  "por": 5945,
  "Mal": 5946,
  "limitation</w>": 5947,
  "views</w>": 5948,
  "fibronectin</w>": 5949,
  "PN</w>": 5950,
  "ogen</w>": 5951,
  "Design</w>": 5952,
  "8.0</w>": 5953,
  "immobilized</w>": 5954,
  "wavelength</w>": 5955,
  "flight</w>": 5956,
  "sed</w>": 5957,
  "azine</w>": 5958,
  "ping</w>": 5959,
  "adulthood</w>": 5960,
  "homozygous</w>": 5961,
  "adenomas</w>": 5962,
  "Response</w>": 5963,
  "cycl": 5964,
  "AN</w>": 5965,
  "helical</w>": 5966,
  "fetus</w>": 5967,
  "ectopic</w>": 5968,
  "reversal</w>": 5969,
  "Lung</w>": 5970,
  "slower</w>": 5971,
  "6.1</w>": 5972,
  "analogs</w>": 5973,
  "facility</w>": 5974,
  "methionine</w>": 5975,
  "mesenteric</w>": 5976,
  "Adult</w>": 5977,
  "OT</w>": 5978,
  "microvascular</w>": 5979,
  "averaged</w>": 5980,
  "job</w>": 5981,
  "olysis</w>": 5982,
  "osa</w>": 5983,
  "template</w>": 5984,
  "dimension</w>": 5985,
  "stabilized</w>": 5986,
  "pic": 5987,
  "plasminogen</w>": 5988,
  "carry</w>": 5989,
  "America</w>": 5990,
  "distinguished</w>": 5991,
  "ning</w>": 5992,
  "admissions</w>": 5993,
  "immunized</w>": 5994,
  "promise</w>": 5995,
  "methanol</w>": 5996,
  "converting</w>": 5997,
  "intubation</w>": 5998,
  "parathyroid</w>": 5999,
  "complaints</w>": 6000,
  "sensors</w>": 6001,
  "introduce</w>": 6002,
  "transitions</w>": 6003,
  "glucocorticoid</w>": 6004,
  "explanation</w>": 6005,
  "sw": 6006,
  "PRL</w>": 6007,
  "microenvironment</w>": 6008,
  "poorer</w>": 6009,
  "TCR</w>": 6010,
  "IC50</w>": 6011,
  "beliefs</w>": 6012,
  "coating</w>": 6013,
  "follicles</w>": 6014,
  "psoriasis</w>": 6015,
  "thromb": 6016,
  "inherited</w>": 6017,
  "MS": 6018,
  "son": 6019,
  "highlighted</w>": 6020,
  "planned</w>": 6021,
  "Tissue</w>": 6022,
  "phospholipase</w>": 6023,
  "ALS</w>": 6024,
  "fermentation</w>": 6025,
  "adding</w>": 6026,
  "Dawley</w>": 6027,
  "arrhythmias</w>": 6028,
  "Ab</w>": 6029,
  "GR</w>": 6030,
  "leucine</w>": 6031,
  "cre": 6032,
  "TE</w>": 6033,
  "herpes</w>": 6034,
  "Twelve</w>": 6035,
  "und": 6036,
  "DN": 6037,
  "registration</w>": 6038,
  "bar": 6039,
  "clamp</w>": 6040,
  "reproduction</w>": 6041,
  "affective</w>": 6042,
  "domestic</w>": 6043,
  "6.6</w>": 6044,
  "Res": 6045,
  "intraperitoneal</w>": 6046,
  "siRNA</w>": 6047,
  "Sprague</w>": 6048,
  "Higher</w>": 6049,
  "sensitization</w>": 6050,
  "MEASURES</w>": 6051,
  "methodological</w>": 6052,
  "SV</w>": 6053,
  "planar</w>": 6054,
  "universal</w>": 6055,
  "resuscitation</w>": 6056,
  "dermatitis</w>": 6057,
  "embolization</w>": 6058,
  "infarct</w>": 6059,
  "dataset</w>": 6060,
  "manifestation</w>": 6061,
  "mutated</w>": 6062,
  "seeds</w>": 6063,
  "fo": 6064,
  "Potential</w>": 6065,
  "saliva</w>": 6066,
  "desired</w>": 6067,
  "periodic</w>": 6068,
  "osmotic</w>": 6069,
  "code</w>": 6070,
  "themes</w>": 6071,
  "splenic</w>": 6072,
  "800</w>": 6073,
  "resected</w>": 6074,
  "pul": 6075,
  "RT": 6076,
  "endotoxin</w>": 6077,
  "circuit</w>": 6078,
  "SA": 6079,
  "ination</w>": 6080,
  "market</w>": 6081,
  "PB</w>": 6082,
  "é": 6083,
  "5p</w>": 6084,
  "aria</w>": 6085,
  "8.4</w>": 6086,
  "zones</w>": 6087,
  "ut</w>": 6088,
  "transform</w>": 6089,
  "moving</w>": 6090,
  "7.6</w>": 6091,
  "ID": 6092,
  "ALL</w>": 6093,
  "nucleic</w>": 6094,
  "confined</w>": 6095,
  "vestibular</w>": 6096,
  "do": 6097,
  "Electro": 6098,
  "sized</w>": 6099,
  "i.p.</w>": 6100,
  "ON</w>": 6101,
  "PP": 6102,
  "mutagenesis</w>": 6103,
  "IBD</w>": 6104,
  "0.5": 6105,
  "α": 6106,
  "junctions</w>": 6107,
  "conduct</w>": 6108,
  "OC</w>": 6109,
  "Golgi</w>": 6110,
  "repetitive</w>": 6111,
  "ID</w>": 6112,
  "microgram</w>": 6113,
  "vel": 6114,
  "etc</w>": 6115,
  "idal</w>": 6116,
  "calibration</w>": 6117,
  "har": 6118,
  "submitted</w>": 6119,
  "establishing</w>": 6120,
  "arch</w>": 6121,
  "EM</w>": 6122,
  "SD": 6123,
  "triglyceride</w>": 6124,
  "DI</w>": 6125,
  "ear": 6126,
  "precipitation</w>": 6127,
  "links</w>": 6128,
  "plans</w>": 6129,
  "Postoperative</w>": 6130,
  "corticosteroids</w>": 6131,
  "8.6</w>": 6132,
  "careful</w>": 6133,
  "law</w>": 6134,
  "folate</w>": 6135,
  "pretreated</w>": 6136,
  "polyacrylamide</w>": 6137,
  "beta": 6138,
  "pigment</w>": 6139,
  "meningitis</w>": 6140,
  "Experiment</w>": 6141,
  "microarray</w>": 6142,
  "actively</w>": 6143,
  "ly": 6144,
  "pur": 6145,
  "forest</w>": 6146,
  "CB</w>": 6147,
  "elongation</w>": 6148,
  "inhalation</w>": 6149,
  "RV</w>": 6150,
  "minimize</w>": 6151,
  "biomedical</w>": 6152,
  "round</w>": 6153,
  "genetics</w>": 6154,
  "Crohn</w>": 6155,
  "FI": 6156,
  "1H</w>": 6157,
  "embolism</w>": 6158,
  "named</w>": 6159,
  "F2</w>": 6160,
  "assembled</w>": 6161,
  "profound</w>": 6162,
  "2019</w>": 6163,
  "depleted</w>": 6164,
  "HF": 6165,
  "glucagon</w>": 6166,
  "detector</w>": 6167,
  "ambient</w>": 6168,
  "striatal</w>": 6169,
  "commercially</w>": 6170,
  "nor": 6171,
  "ot</w>": 6172,
  "cycling</w>": 6173,
  "itation</w>": 6174,
  "prosthetic</w>": 6175,
  "H2O2</w>": 6176,
  "Together</w>": 6177,
  "trunk</w>": 6178,
  "curative</w>": 6179,
  "flexibility</w>": 6180,
  "vulnerable</w>": 6181,
  "dramatic</w>": 6182,
  "ching</w>": 6183,
  "laryngeal</w>": 6184,
  "scored</w>": 6185,
  "Cy": 6186,
  "aberrant</w>": 6187,
  "hypersensitivity</w>": 6188,
  "pulses</w>": 6189,
  "glycol</w>": 6190,
  "acet": 6191,
  "hemorrhagic</w>": 6192,
  "angioplasty</w>": 6193,
  "oth": 6194,
  "NADPH</w>": 6195,
  "Seventy</w>": 6196,
  "kinds</w>": 6197,
  "rose</w>": 6198,
  "margin</w>": 6199,
  "narrow</w>": 6200,
  "suture</w>": 6201,
  "clonal</w>": 6202,
  "pacing</w>": 6203,
  "Gal": 6204,
  "fibrous</w>": 6205,
  "ogen": 6206,
  "p.": 6207,
  "hypotheses</w>": 6208,
  "FU</w>": 6209,
  "scaffold</w>": 6210,
  "Consequently</w>": 6211,
  "fluctuations</w>": 6212,
  "Male</w>": 6213,
  "ECs</w>": 6214,
  "probable</w>": 6215,
  "8.2</w>": 6216,
  "El": 6217,
  "olytic</w>": 6218,
  "ful</w>": 6219,
  "marginal</w>": 6220,
  "38": 6221,
  "promoters</w>": 6222,
  "7.8</w>": 6223,
  "angles</w>": 6224,
  "fil": 6225,
  "For": 6226,
  "repeats</w>": 6227,
  "Differential</w>": 6228,
  "top": 6229,
  "mechanistic</w>": 6230,
  "participating</w>": 6231,
  "Southern</w>": 6232,
  "11.": 6233,
  "PK</w>": 6234,
  "optimize</w>": 6235,
  "borne</w>": 6236,
  "sl": 6237,
  "beta1</w>": 6238,
  "0.2": 6239,
  "bolus</w>": 6240,
  "doxorubicin</w>": 6241,
  "integral</w>": 6242,
  "glutamine</w>": 6243,
  "Efficacy</w>": 6244,
  "overlapping</w>": 6245,
  "geographic</w>": 6246,
  "MIC</w>": 6247,
  "AV</w>": 6248,
  "0.06</w>": 6249,
  "datasets</w>": 6250,
  "Specifically</w>": 6251,
  "16S</w>": 6252,
  "estimating</w>": 6253,
  "lowered</w>": 6254,
  "prefrontal</w>": 6255,
  "crystalline</w>": 6256,
  "8.3</w>": 6257,
  "killing</w>": 6258,
  "tre": 6259,
  "scaffolds</w>": 6260,
  "mer": 6261,
  "Genome</w>": 6262,
  "HO</w>": 6263,
  "continues</w>": 6264,
  "automatic</w>": 6265,
  "silencing</w>": 6266,
  "tional</w>": 6267,
  "household</w>": 6268,
  "lt</w>": 6269,
  "we": 6270,
  "N1</w>": 6271,
  "infertility</w>": 6272,
  "VE": 6273,
  "deletions</w>": 6274,
  "cerebellum</w>": 6275,
  "connections</w>": 6276,
  "bul": 6277,
  "GE</w>": 6278,
  "recall</w>": 6279,
  "evidenced</w>": 6280,
  "Arg</w>": 6281,
  "path</w>": 6282,
  "socio</w>": 6283,
  "intravenously</w>": 6284,
  "newborns</w>": 6285,
  "ROC</w>": 6286,
  "century</w>": 6287,
  "dismutase</w>": 6288,
  "inositol</w>": 6289,
  "7.9</w>": 6290,
  "6.7</w>": 6291,
  "9.4</w>": 6292,
  "{</w>": 6293,
  "9.6</w>": 6294,
  "palsy</w>": 6295,
  "biologically</w>": 6296,
  "degenerative</w>": 6297,
  "polymerization</w>": 6298,
  "colonies</w>": 6299,
  "nonspecific</w>": 6300,
  "tis</w>": 6301,
  "N2</w>": 6302,
  "reg": 6303,
  "blocker</w>": 6304,
  "connective</w>": 6305,
  "fur": 6306,
  "sul": 6307,
  "OCT</w>": 6308,
  "di</w>": 6309,
  "moiety</w>": 6310,
  "Man": 6311,
  "persisted</w>": 6312,
  "cadherin</w>": 6313,
  "Mice</w>": 6314,
  "thymus</w>": 6315,
  "gross</w>": 6316,
  "personnel</w>": 6317,
  "the": 6318,
  "retinopathy</w>": 6319,
  "synovial</w>": 6320,
  "discharged</w>": 6321,
  "plaques</w>": 6322,
  "100": 6323,
  "heterozygous</w>": 6324,
  "progressively</w>": 6325,
  "umb": 6326,
  "manage</w>": 6327,
  "seemed</w>": 6328,
  "metric</w>": 6329,
  "avian</w>": 6330,
  "ath": 6331,
  "8.8</w>": 6332,
  "ether</w>": 6333,
  "111</w>": 6334,
  "p38</w>": 6335,
  "provision</w>": 6336,
  "Car": 6337,
  "EA</w>": 6338,
  "hazards</w>": 6339,
  "reflecting</w>": 6340,
  "remote</w>": 6341,
  "organized</w>": 6342,
  "scope</w>": 6343,
  "oxygenation</w>": 6344,
  "consumed</w>": 6345,
  "lipo": 6346,
  "Day</w>": 6347,
  "are": 6348,
  "But</w>": 6349,
  "osi": 6350,
  "hypotension</w>": 6351,
  "acceptance</w>": 6352,
  "gels</w>": 6353,
  "Cu": 6354,
  "Li": 6355,
  "demands</w>": 6356,
  "ris": 6357,
  "PGE2</w>": 6358,
  "motifs</w>": 6359,
  "bioactive</w>": 6360,
  "killed</w>": 6361,
  "centres</w>": 6362,
  "falls</w>": 6363,
  "ologist</w>": 6364,
  "propagation</w>": 6365,
  "disulfide</w>": 6366,
  "Performance</w>": 6367,
  "neuromuscular</w>": 6368,
  "Survival</w>": 6369,
  "FF": 6370,
  "ves</w>": 6371,
  "bones</w>": 6372,
  "descending</w>": 6373,
  "antiretroviral</w>": 6374,
  "constraints</w>": 6375,
  "Ta": 6376,
  "bridge</w>": 6377,
  "categorized</w>": 6378,
  "distances</w>": 6379,
  "switching</w>": 6380,
  "obtaining</w>": 6381,
  "ACS</w>": 6382,
  "retardation</w>": 6383,
  "DCs</w>": 6384,
  "otypes</w>": 6385,
  "foci</w>": 6386,
  "termination</w>": 6387,
  "reacted</w>": 6388,
  "cytology</w>": 6389,
  "eric</w>": 6390,
  "sen": 6391,
  "}</w>": 6392,
  "ances</w>": 6393,
  "102</w>": 6394,
  "retrograde</w>": 6395,
  "ited</w>": 6396,
  "aph": 6397,
  "GFP</w>": 6398,
  "Korean</w>": 6399,
  "SHR</w>": 6400,
  "hereditary</w>": 6401,
  "olig": 6402,
  "abortion</w>": 6403,
  "topic</w>": 6404,
  "fabricated</w>": 6405,
  "anesthetic</w>": 6406,
  "presumably</w>": 6407,
  "ylated</w>": 6408,
  "BALB</w>": 6409,
  "cadmium</w>": 6410,
  "accessible</w>": 6411,
  "echo</w>": 6412,
  "papers</w>": 6413,
  "IOP</w>": 6414,
  "rating</w>": 6415,
  "proteolytic</w>": 6416,
  "Large</w>": 6417,
  "wastewater</w>": 6418,
  "finally</w>": 6419,
  "CAM</w>": 6420,
  "genital</w>": 6421,
  "Screening</w>": 6422,
  "Gr": 6423,
  "Fc</w>": 6424,
  "CASE</w>": 6425,
  "dust</w>": 6426,
  "virtual</w>": 6427,
  "0.3": 6428,
  "screw</w>": 6429,
  "wet</w>": 6430,
  "ore</w>": 6431,
  "GL": 6432,
  "perforation</w>": 6433,
  "aden": 6434,
  "ion": 6435,
  "multivariable</w>": 6436,
  "QOL</w>": 6437,
  "35": 6438,
  "cardi": 6439,
  "segmental</w>": 6440,
  "morph": 6441,
  "Those</w>": 6442,
  "demonstration</w>": 6443,
  "vasopressin</w>": 6444,
  "facilitates</w>": 6445,
  "mer</w>": 6446,
  "ement</w>": 6447,
  "Examination</w>": 6448,
  "ved</w>": 6449,
  "VT</w>": 6450,
  "challenged</w>": 6451,
  "walls</w>": 6452,
  "plasmids</w>": 6453,
  "pyruvate</w>": 6454,
  "resorption</w>": 6455,
  "ture</w>": 6456,
  "positivity</w>": 6457,
  "UR": 6458,
  "statin</w>": 6459,
  "German</w>": 6460,
  "soils</w>": 6461,
  "CD3</w>": 6462,
  "intrac": 6463,
  "copies</w>": 6464,
  "Conversely</w>": 6465,
  "Met</w>": 6466,
  "played</w>": 6467,
  "cleft</w>": 6468,
  "schedule</w>": 6469,
  "trac": 6470,
  "compartments</w>": 6471,
  "bases</w>": 6472,
  "platinum</w>": 6473,
  "ultrastructural</w>": 6474,
  "Cognitive</w>": 6475,
  "enc": 6476,
  "French</w>": 6477,
  "1988</w>": 6478,
  "NH</w>": 6479,
  "conjugate</w>": 6480,
  "fell</w>": 6481,
  "islet</w>": 6482,
  "1989</w>": 6483,
  "EE": 6484,
  "Sal": 6485,
  "rin": 6486,
  "Stress</w>": 6487,
  "dihydro": 6488,
  "window</w>": 6489,
  "fMRI</w>": 6490,
  "bil": 6491,
  "neuroendocrine</w>": 6492,
  "Prevention</w>": 6493,
  "bs</w>": 6494,
  "heating</w>": 6495,
  "pollen</w>": 6496,
  "revascularization</w>": 6497,
  "DF</w>": 6498,
  "Mental</w>": 6499,
  "border</w>": 6500,
  "interacts</w>": 6501,
  "know</w>": 6502,
  "burst</w>": 6503,
  "ubiquitin</w>": 6504,
  "MV</w>": 6505,
  "gaps</w>": 6506,
  "White</w>": 6507,
  "sil": 6508,
  "1,3</w>": 6509,
  "Introduction</w>": 6510,
  "KO</w>": 6511,
  "differs</w>": 6512,
  "primers</w>": 6513,
  "transporters</w>": 6514,
  "mimic</w>": 6515,
  "dilatation</w>": 6516,
  "iv": 6517,
  "messenger</w>": 6518,
  "T2DM</w>": 6519,
  "Web</w>": 6520,
  "loc": 6521,
  "Body</w>": 6522,
  "nausea</w>": 6523,
  "viscosity</w>": 6524,
  "apnea</w>": 6525,
  "classic</w>": 6526,
  "Hydro": 6527,
  "VAS</w>": 6528,
  "constituents</w>": 6529,
  "Or": 6530,
  "Materials</w>": 6531,
  "modelling</w>": 6532,
  "MA": 6533,
  "pmol</w>": 6534,
  "bor": 6535,
  "house</w>": 6536,
  "mAb</w>": 6537,
  "oncology</w>": 6538,
  "kind</w>": 6539,
  "spermatozoa</w>": 6540,
  "projection</w>": 6541,
  "shortening</w>": 6542,
  "PCI</w>": 6543,
  "albicans</w>": 6544,
  "publications</w>": 6545,
  "cer": 6546,
  "mel": 6547,
  "Global</w>": 6548,
  "caffeine</w>": 6549,
  "productivity</w>": 6550,
  "infused</w>": 6551,
  "Currently</w>": 6552,
  "autism</w>": 6553,
  "SO</w>": 6554,
  "1,000</w>": 6555,
  "autopsy</w>": 6556,
  "ultraviolet</w>": 6557,
  "lymphatic</w>": 6558,
  "Stage</w>": 6559,
  "intended</w>": 6560,
  "phospholipids</w>": 6561,
  "consent</w>": 6562,
  "noradrenaline</w>": 6563,
  "lengths</w>": 6564,
  "stresses</w>": 6565,
  "ole": 6566,
  "UC": 6567,
  "Increasing</w>": 6568,
  "calves</w>": 6569,
  "Organization</w>": 6570,
  "cement</w>": 6571,
  "fibrin</w>": 6572,
  "tend</w>": 6573,
  "experts</w>": 6574,
  "tine</w>": 6575,
  "mapped</w>": 6576,
  "N-</w>": 6577,
  "West</w>": 6578,
  "eventually</w>": 6579,
  "mobilization</w>": 6580,
  "recessive</w>": 6581,
  "esophagus</w>": 6582,
  "lymphomas</w>": 6583,
  "mercury</w>": 6584,
  "raw</w>": 6585,
  "graded</w>": 6586,
  "habits</w>": 6587,
  "H3</w>": 6588,
  "arb": 6589,
  "men": 6590,
  "hepat": 6591,
  "quin": 6592,
  "P4</w>": 6593,
  "Post": 6594,
  "solubility</w>": 6595,
  "Besides</w>": 6596,
  "mentioned</w>": 6597,
  "Lo": 6598,
  "mumol</w>": 6599,
  "Combined</w>": 6600,
  "meeting</w>": 6601,
  "therapeutics</w>": 6602,
  "finite</w>": 6603,
  "calcification</w>": 6604,
  "univariate</w>": 6605,
  "modulates</w>": 6606,
  "proc": 6607,
  "entered</w>": 6608,
  "grow</w>": 6609,
  "organizations</w>": 6610,
  "37": 6611,
  "electrophysiological</w>": 6612,
  "let</w>": 6613,
  "designs</w>": 6614,
  "Wnt</w>": 6615,
  "isotope</w>": 6616,
  "disappeared</w>": 6617,
  "SPECT</w>": 6618,
  "balanced</w>": 6619,
  "rin</w>": 6620,
  "augmentation</w>": 6621,
  "myelin</w>": 6622,
  "FP</w>": 6623,
  "covering</w>": 6624,
  "uncertain</w>": 6625,
  "anc": 6626,
  "aldosterone</w>": 6627,
  "Hem": 6628,
  "103</w>": 6629,
  "vesicle</w>": 6630,
  "accounting</w>": 6631,
  "Outcome</w>": 6632,
  "azole</w>": 6633,
  "33": 6634,
  "HI</w>": 6635,
  "handling</w>": 6636,
  "managing</w>": 6637,
  "Cap": 6638,
  "Si</w>": 6639,
  "killer</w>": 6640,
  "diagnose</w>": 6641,
  "μM</w>": 6642,
  "typing</w>": 6643,
  "impairments</w>": 6644,
  "rod</w>": 6645,
  "spent</w>": 6646,
  "retrieval</w>": 6647,
  "RCTs</w>": 6648,
  "lambda</w>": 6649,
  "wear</w>": 6650,
  "lysosomal</w>": 6651,
  "12.5</w>": 6652,
  "Induced</w>": 6653,
  "boundary</w>": 6654,
  "Regulation</w>": 6655,
  "104</w>": 6656,
  "synthetase</w>": 6657,
  "Science</w>": 6658,
  "tively</w>": 6659,
  "Insulin</w>": 6660,
  "unc": 6661,
  "players</w>": 6662,
  "1α</w>": 6663,
  "tel": 6664,
  "powder</w>": 6665,
  "CD34</w>": 6666,
  "sulfur</w>": 6667,
  "suggestive</w>": 6668,
  "triglycerides</w>": 6669,
  "spite</w>": 6670,
  "provider</w>": 6671,
  "voluntary</w>": 6672,
  "ars</w>": 6673,
  "DATA</w>": 6674,
  "9.2</w>": 6675,
  "causative</w>": 6676,
  "β1</w>": 6677,
  "branches</w>": 6678,
  "competence</w>": 6679,
  "terminals</w>": 6680,
  "irreversible</w>": 6681,
  "cyclophosphamide</w>": 6682,
  "seconds</w>": 6683,
  "DSM</w>": 6684,
  "accounts</w>": 6685,
  "gradients</w>": 6686,
  "follicle</w>": 6687,
  "began</w>": 6688,
  "scenarios</w>": 6689,
  "0.004</w>": 6690,
  "CEA</w>": 6691,
  "9.7</w>": 6692,
  "HER2</w>": 6693,
  "ising</w>": 6694,
  "defining</w>": 6695,
  "tetra": 6696,
  "8.1</w>": 6697,
  "Positive</w>": 6698,
  "subcellular</w>": 6699,
  "kept</w>": 6700,
  "tongue</w>": 6701,
  "Pediatric</w>": 6702,
  "lip</w>": 6703,
  "lives</w>": 6704,
  "passage</w>": 6705,
  "3p</w>": 6706,
  "34": 6707,
  "titanium</w>": 6708,
  "advance</w>": 6709,
  "blinded</w>": 6710,
  "sia</w>": 6711,
  "CV": 6712,
  "Italy</w>": 6713,
  "fibre</w>": 6714,
  "legal</w>": 6715,
  "DE</w>": 6716,
  "Ni": 6717,
  "carefully</w>": 6718,
  "Score</w>": 6719,
  "inactivated</w>": 6720,
  "Canadian</w>": 6721,
  "6,": 6722,
  "ECM</w>": 6723,
  "Ep": 6724,
  "northern</w>": 6725,
  "character</w>": 6726,
  "southern</w>": 6727,
  "osomes</w>": 6728,
  "stones</w>": 6729,
  "til": 6730,
  "intermediates</w>": 6731,
  "dB</w>": 6732,
  "iliac</w>": 6733,
  "conflict</w>": 6734,
  "modest</w>": 6735,
  "expectations</w>": 6736,
  "9.8</w>": 6737,
  "36": 6738,
  "Rapid</w>": 6739,
  "ammonia</w>": 6740,
  "mediator</w>": 6741,
  "lev": 6742,
  "8.7</w>": 6743,
  "relating</w>": 6744,
  "Complete</w>": 6745,
  "prescribing</w>": 6746,
  "split</w>": 6747,
  "OB": 6748,
  "ICD</w>": 6749,
  "immunoassay</w>": 6750,
  "ethnicity</w>": 6751,
  "glycosylation</w>": 6752,
  "analyse</w>": 6753,
  "sedation</w>": 6754,
  "citrate</w>": 6755,
  "individually</w>": 6756,
  "uterus</w>": 6757,
  "demographics</w>": 6758,
  "Community</w>": 6759,
  "spindle</w>": 6760,
  "100,000</w>": 6761,
  "Ig</w>": 6762,
  "serves</w>": 6763,
  "gu": 6764,
  "2a</w>": 6765,
  "concentrated</w>": 6766,
  "GT</w>": 6767,
  "spectroscopic</w>": 6768,
  "coordinated</w>": 6769,
  "arrays</w>": 6770,
  "document</w>": 6771,
  "la": 6772,
  "123</w>": 6773,
  "attacks</w>": 6774,
  "nutrients</w>": 6775,
  "Hispanic</w>": 6776,
  "war": 6777,
  "Eighty</w>": 6778,
  "registry</w>": 6779,
  "bro": 6780,
  "DD</w>": 6781,
  "impedance</w>": 6782,
  "yt": 6783,
  "cover</w>": 6784,
  "menstrual</w>": 6785,
  "ak</w>": 6786,
  "remove</w>": 6787,
  "Phot": 6788,
  "cochlear</w>": 6789,
  "Purpose</w>": 6790,
  "gated</w>": 6791,
  "sin": 6792,
  "East</w>": 6793,
  "act": 6794,
  "endovascular</w>": 6795,
  "faces</w>": 6796,
  "exhibiting</w>": 6797,
  "pulsed</w>": 6798,
  "Au</w>": 6799,
  "lact": 6800,
  "rop": 6801,
  "axillary</w>": 6802,
  "segmentation</w>": 6803,
  "differing</w>": 6804,
  "chiral</w>": 6805,
  "0.75</w>": 6806,
  "enter</w>": 6807,
  "ras</w>": 6808,
  "built</w>": 6809,
  "catalase</w>": 6810,
  "afferent</w>": 6811,
  "births</w>": 6812,
  "cations</w>": 6813,
  "gyrus</w>": 6814,
  "consultation</w>": 6815,
  "sexes</w>": 6816,
  "9.3</w>": 6817,
  "threat</w>": 6818,
  "perhaps</w>": 6819,
  "CAT</w>": 6820,
  "CG</w>": 6821,
  "Importantly</w>": 6822,
  "symmetry</w>": 6823,
  "interviewed</w>": 6824,
  "lectin</w>": 6825,
  "toc": 6826,
  "Family</w>": 6827,
  "dystrophy</w>": 6828,
  "formal</w>": 6829,
  "programmes</w>": 6830,
  "microm</w>": 6831,
  "sporadic</w>": 6832,
  "UNLABELLED</w>": 6833,
  "ified</w>": 6834,
  "incorporating</w>": 6835,
  "winter</w>": 6836,
  "HbA1c</w>": 6837,
  "luminal</w>": 6838,
  "innovative</w>": 6839,
  "catheters</w>": 6840,
  "orth": 6841,
  "stimulatory</w>": 6842,
  "twin</w>": 6843,
  "GI": 6844,
  "Follow</w>": 6845,
  "firing</w>": 6846,
  "ton</w>": 6847,
  "penicillin</w>": 6848,
  "IA</w>": 6849,
  "log": 6850,
  "emotion</w>": 6851,
  "sive</w>": 6852,
  "deformity</w>": 6853,
  "tw": 6854,
  "oocyte</w>": 6855,
  "spike</w>": 6856,
  "web</w>": 6857,
  "zebrafish</w>": 6858,
  "microtubule</w>": 6859,
  "eri": 6860,
  "fr": 6861,
  "SCI</w>": 6862,
  "mTOR</w>": 6863,
  "Hu": 6864,
  "front</w>": 6865,
  "Whereas</w>": 6866,
  "popular</w>": 6867,
  "Ns</w>": 6868,
  "Mc": 6869,
  "2,3</w>": 6870,
  "0.15</w>": 6871,
  "Americans</w>": 6872,
  "bin": 6873,
  "conductivity</w>": 6874,
  "computerized</w>": 6875,
  "QoL</w>": 6876,
  "Severe</w>": 6877,
  "inputs</w>": 6878,
  "thick</w>": 6879,
  "NOS</w>": 6880,
  "soybean</w>": 6881,
  "Method</w>": 6882,
  "reasonable</w>": 6883,
  "circumference</w>": 6884,
  "PO</w>": 6885,
  "employment</w>": 6886,
  "py": 6887,
  "RF": 6888,
  "nucle": 6889,
  "humoral</w>": 6890,
  "BDNF</w>": 6891,
  "7,": 6892,
  "ocytosis</w>": 6893,
  "lymphocytic</w>": 6894,
  "brains</w>": 6895,
  "bur": 6896,
  "enamel</w>": 6897,
  "circumstances</w>": 6898,
  "lipase</w>": 6899,
  "proinflammatory</w>": 6900,
  "stationary</w>": 6901,
  "paediatric</w>": 6902,
  "biologic</w>": 6903,
  "transcribed</w>": 6904,
  "her": 6905,
  "endpoint</w>": 6906,
  "sided</w>": 6907,
  "atopic</w>": 6908,
  "participant</w>": 6909,
  "polymorphic</w>": 6910,
  "addressing</w>": 6911,
  "IQR</w>": 6912,
  "BI</w>": 6913,
  "Randomized</w>": 6914,
  "Level</w>": 6915,
  "vol": 6916,
  "modifying</w>": 6917,
  "12.": 6918,
  "urgent</w>": 6919,
  "lavage</w>": 6920,
  "sexually</w>": 6921,
  "Km</w>": 6922,
  "shifted</w>": 6923,
  "trees</w>": 6924,
  "omega</w>": 6925,
  "propranolol</w>": 6926,
  "antidepressant</w>": 6927,
  "sediment</w>": 6928,
  "ori": 6929,
  "cu": 6930,
  "0.4": 6931,
  "autoantibodies</w>": 6932,
  "monkey</w>": 6933,
  "enabling</w>": 6934,
  "sec</w>": 6935,
  "deposits</w>": 6936,
  "centered</w>": 6937,
  "Infection</w>": 6938,
  "irrespective</w>": 6939,
  "projections</w>": 6940,
  "CFU</w>": 6941,
  "definite</w>": 6942,
  "intr": 6943,
  "HeLa</w>": 6944,
  "Pol": 6945,
  "relate</w>": 6946,
  "ification</w>": 6947,
  "poisoning</w>": 6948,
  "1987</w>": 6949,
  "institutional</w>": 6950,
  "binary</w>": 6951,
  "9.1</w>": 6952,
  "grain</w>": 6953,
  "Inventory</w>": 6954,
  "mic</w>": 6955,
  "Is": 6956,
  "government</w>": 6957,
  "minority</w>": 6958,
  "preoperatively</w>": 6959,
  "oscillations</w>": 6960,
  "ai": 6961,
  "retrieved</w>": 6962,
  "supportive</w>": 6963,
  "quantities</w>": 6964,
  "receiver</w>": 6965,
  "behind</w>": 6966,
  "AMI</w>": 6967,
  "Pro</w>": 6968,
  "3,4</w>": 6969,
  "indomethacin</w>": 6970,
  "polypeptides</w>": 6971,
  "kit</w>": 6972,
  "nodal</w>": 6973,
  "effusion</w>": 6974,
  "fe": 6975,
  "catalyst</w>": 6976,
  "Iran</w>": 6977,
  "02</w>": 6978,
  "gallbladder</w>": 6979,
  "asymmetry</w>": 6980,
  "lineages</w>": 6981,
  "5-</w>": 6982,
  "granule</w>": 6983,
  "ements</w>": 6984,
  "Rh": 6985,
  "crossover</w>": 6986,
  "tracer</w>": 6987,
  "saturated</w>": 6988,
  "Knowledge</w>": 6989,
  "prec": 6990,
  "Te": 6991,
  "gray</w>": 6992,
  "society</w>": 6993,
  "absorbed</w>": 6994,
  "femur</w>": 6995,
  "breath</w>": 6996,
  "proline</w>": 6997,
  "rap": 6998,
  "Medicare</w>": 6999,
  "propensity</w>": 7000,
  "aldehyde</w>": 7001,
  "Structure</w>": 7002,
  "chick</w>": 7003,
  "adenine</w>": 7004,
  "plexus</w>": 7005,
  "fractional</w>": 7006,
  "ometer</w>": 7007,
  "sensitized</w>": 7008,
  "tumorigenesis</w>": 7009,
  "written</w>": 7010,
  "Levels</w>": 7011,
  "0.08</w>": 7012,
  "microsomal</w>": 7013,
  "skull</w>": 7014,
  "hCG</w>": 7015,
  "conjugates</w>": 7016,
  "radioactivity</w>": 7017,
  "Binding</w>": 7018,
  "briefly</w>": 7019,
  "inherent</w>": 7020,
  "FC</w>": 7021,
  "brainstem</w>": 7022,
  "Kaplan</w>": 7023,
  "CCK</w>": 7024,
  "counterparts</w>": 7025,
  "ano": 7026,
  "Ls</w>": 7027,
  "fail</w>": 7028,
  "cytosol</w>": 7029,
  "amygdala</w>": 7030,
  "ked</w>": 7031,
  "ra</w>": 7032,
  "conscious</w>": 7033,
  "encephalitis</w>": 7034,
  "helper</w>": 7035,
  "toxins</w>": 7036,
  "multidrug</w>": 7037,
  "ory</w>": 7038,
  "Hy": 7039,
  "allergen</w>": 7040,
  "antihypertensive</w>": 7041,
  "constitutive</w>": 7042,
  "IT": 7043,
  "LE</w>": 7044,
  "1B</w>": 7045,
  "enhancer</w>": 7046,
  "-ATPase</w>": 7047,
  "1980</w>": 7048,
  "Fourier</w>": 7049,
  "chickens</w>": 7050,
  "pass</w>": 7051,
  "weakness</w>": 7052,
  "NGF</w>": 7053,
  "Hypo": 7054,
  "-dependent</w>": 7055,
  "ANOVA</w>": 7056,
  "iti": 7057,
  "adenovirus</w>": 7058,
  "larval</w>": 7059,
  "spherical</w>": 7060,
  "BT</w>": 7061,
  "kers</w>": 7062,
  "Phosph": 7063,
  "neoplasia</w>": 7064,
  "sec": 7065,
  "AE": 7066,
  "hole</w>": 7067,
  "MRSA</w>": 7068,
  "MEDLINE</w>": 7069,
  "Mg2</w>": 7070,
  "ess": 7071,
  "simplex</w>": 7072,
  "Leu</w>": 7073,
  "RBC</w>": 7074,
  "lean</w>": 7075,
  "amylase</w>": 7076,
  "Plasmodium</w>": 7077,
  "thrombocytopenia</w>": 7078,
  "ineffective</w>": 7079,
  "da</w>": 7080,
  "inal</w>": 7081,
  "publication</w>": 7082,
  "senescence</w>": 7083,
  "alkyl</w>": 7084,
  "HD": 7085,
  "ches</w>": 7086,
  "antifungal</w>": 7087,
  "Korea</w>": 7088,
  "surveyed</w>": 7089,
  "icity</w>": 7090,
  "FS</w>": 7091,
  "ery</w>": 7092,
  "erythematosus</w>": 7093,
  "osome</w>": 7094,
  "reward</w>": 7095,
  "PAH</w>": 7096,
  "painful</w>": 7097,
  "come</w>": 7098,
  "priming</w>": 7099,
  "onate</w>": 7100,
  "preceding</w>": 7101,
  "clinician</w>": 7102,
  "0.07</w>": 7103,
  "ze</w>": 7104,
  "downregulated</w>": 7105,
  "lipoproteins</w>": 7106,
  "volatile</w>": 7107,
  "atum</w>": 7108,
  "falciparum</w>": 7109,
  "motivation</w>": 7110,
  "urethral</w>": 7111,
  "Database</w>": 7112,
  "monotherapy</w>": 7113,
  "chitosan</w>": 7114,
  "oncogene</w>": 7115,
  "proteases</w>": 7116,
  "brown</w>": 7117,
  "consuming</w>": 7118,
  "somatostatin</w>": 7119,
  "unlikely</w>": 7120,
  "bre": 7121,
  "Visual</w>": 7122,
  "rays</w>": 7123,
  "Ver": 7124,
  "guideline</w>": 7125,
  "Nan": 7126,
  "California</w>": 7127,
  "AKI</w>": 7128,
  "ended</w>": 7129,
  "FL": 7130,
  "acupuncture</w>": 7131,
  "maize</w>": 7132,
  "paclitaxel</w>": 7133,
  "ferritin</w>": 7134,
  "match</w>": 7135,
  "pon": 7136,
  "synapses</w>": 7137,
  "sem": 7138,
  "pathologies</w>": 7139,
  "phenolic</w>": 7140,
  "Ser</w>": 7141,
  "identifies</w>": 7142,
  "sharing</w>": 7143,
  "Therapeutic</w>": 7144,
  "106</w>": 7145,
  "loads</w>": 7146,
  "mol": 7147,
  "Asia</w>": 7148,
  "unexpected</w>": 7149,
  "Part</w>": 7150,
  "HIF</w>": 7151,
  "chronically</w>": 7152,
  "NAD</w>": 7153,
  "1985</w>": 7154,
  "ets</w>": 7155,
  "corn</w>": 7156,
  "radius</w>": 7157,
  "monolayer</w>": 7158,
  "solar</w>": 7159,
  "9.0</w>": 7160,
  "tubules</w>": 7161,
  "behaviours</w>": 7162,
  "summarizes</w>": 7163,
  "remarkably</w>": 7164,
  "MCF</w>": 7165,
  "coil</w>": 7166,
  "cough</w>": 7167,
  "Correlation</w>": 7168,
  "ACh</w>": 7169,
  "Controlled</w>": 7170,
  "expiratory</w>": 7171,
  "procedural</w>": 7172,
  "Population</w>": 7173,
  "mating</w>": 7174,
  "lived</w>": 7175,
  "islets</w>": 7176,
  "learned</w>": 7177,
  "thrombus</w>": 7178,
  "codes</w>": 7179,
  "glycoproteins</w>": 7180,
  "allocated</w>": 7181,
  "epinephrine</w>": 7182,
  "126</w>": 7183,
  "108</w>": 7184,
  "tus</w>": 7185,
  "Meier</w>": 7186,
  "roph": 7187,
  "hemisphere</w>": 7188,
  "illustrated</w>": 7189,
  "intron</w>": 7190,
  "8.9</w>": 7191,
  "aer": 7192,
  "48": 7193,
  "LR</w>": 7194,
  "away</w>": 7195,
  "livers</w>": 7196,
  "repression</w>": 7197,
  "GD</w>": 7198,
  "cesarean</w>": 7199,
  "ascites</w>": 7200,
  "cGMP</w>": 7201,
  "GG</w>": 7202,
  "Safety</w>": 7203,
  "c.": 7204,
  "plasty</w>": 7205,
  "pu": 7206,
  "agricultural</w>": 7207,
  "rodent</w>": 7208,
  "oside</w>": 7209,
  "Ss</w>": 7210,
  "herein</w>": 7211,
  "Class</w>": 7212,
  "inhaled</w>": 7213,
  "ili": 7214,
  "Experiments</w>": 7215,
  "epsilon</w>": 7216,
  "axon</w>": 7217,
  "lactation</w>": 7218,
  "LL": 7219,
  "collaboration</w>": 7220,
  "Laboratory</w>": 7221,
  "olds</w>": 7222,
  "downregulation</w>": 7223,
  "summer</w>": 7224,
  "degraded</w>": 7225,
  "put</w>": 7226,
  "rigid</w>": 7227,
  "Fl": 7228,
  "inv": 7229,
  "Mortality</w>": 7230,
  "sports</w>": 7231,
  "Zealand</w>": 7232,
  "iform</w>": 7233,
  "LDH</w>": 7234,
  "natriuretic</w>": 7235,
  "Child</w>": 7236,
  "Ma": 7237,
  "theories</w>": 7238,
  "microsomes</w>": 7239,
  "perceptual</w>": 7240,
  "depolarization</w>": 7241,
  "Xenopus</w>": 7242,
  "Sequence</w>": 7243,
  "vaccinated</w>": 7244,
  "fifth</w>": 7245,
  "calmodulin</w>": 7246,
  "Network</w>": 7247,
  "temporary</w>": 7248,
  "virtually</w>": 7249,
  "mixing</w>": 7250,
  "Gly</w>": 7251,
  "initiate</w>": 7252,
  "back": 7253,
  "BR</w>": 7254,
  "pp": 7255,
  "calf</w>": 7256,
  "bilirubin</w>": 7257,
  "zo": 7258,
  "grading</w>": 7259,
  "College</w>": 7260,
  "ordered</w>": 7261,
  "med</w>": 7262,
  "PMA</w>": 7263,
  "sufficiently</w>": 7264,
  "indicative</w>": 7265,
  "meaningful</w>": 7266,
  "scar</w>": 7267,
  "Local</w>": 7268,
  "tubulin</w>": 7269,
  "catheterization</w>": 7270,
  "caudal</w>": 7271,
  "sides</w>": 7272,
  "Implications</w>": 7273,
  "diagnosing</w>": 7274,
  "methotrexate</w>": 7275,
  "adequately</w>": 7276,
  "05</w>": 7277,
  "PFS</w>": 7278,
  "inappropriate</w>": 7279,
  "ge</w>": 7280,
  "adolescence</w>": 7281,
  "flav": 7282,
  "corticosterone</w>": 7283,
  "tubes</w>": 7284,
  "attitude</w>": 7285,
  "histidine</w>": 7286,
  "45": 7287,
  "dilated</w>": 7288,
  "tal": 7289,
  "1.0": 7290,
  "145</w>": 7291,
  "polysaccharide</w>": 7292,
  "oscopic</w>": 7293,
  "phospho": 7294,
  "programmed</w>": 7295,
  "emissions</w>": 7296,
  "Helicobacter</w>": 7297,
  "agreed</w>": 7298,
  "neutralizing</w>": 7299,
  "transl</w>": 7300,
  "swine</w>": 7301,
  "ir</w>": 7302,
  "alters</w>": 7303,
  "Fas</w>": 7304,
  "EMT</w>": 7305,
  "fi": 7306,
  "continuing</w>": 7307,
  "THE</w>": 7308,
  "flaps</w>": 7309,
  "adrenoceptor</w>": 7310,
  "Meth": 7311,
  "ver</w>": 7312,
  "corpus</w>": 7313,
  "expenditure</w>": 7314,
  "LI</w>": 7315,
  "departments</w>": 7316,
  "myocytes</w>": 7317,
  "att": 7318,
  "interfere</w>": 7319,
  "C4</w>": 7320,
  "cooling</w>": 7321,
  "About</w>": 7322,
  "phorbol</w>": 7323,
  "elicit</w>": 7324,
  "IM</w>": 7325,
  "hydrochloride</w>": 7326,
  "ax</w>": 7327,
  "reagents</w>": 7328,
  "Meta</w>": 7329,
  "A3</w>": 7330,
  "GFR</w>": 7331,
  "cationic</w>": 7332,
  "1beta</w>": 7333,
  "quickly</w>": 7334,
  "exponential</w>": 7335,
  "immunosuppression</w>": 7336,
  "IS": 7337,
  "AU": 7338,
  "deliver</w>": 7339,
  "ok": 7340,
  "sional</w>": 7341,
  "Gl": 7342,
  "omics</w>": 7343,
  "Nor": 7344,
  "extra": 7345,
  "strongest</w>": 7346,
  "13.": 7347,
  "antisense</w>": 7348,
  "yellow</w>": 7349,
  "musculoskeletal</w>": 7350,
  "⋯</w>": 7351,
  "Electron</w>": 7352,
  "fructose</w>": 7353,
  "arachidonic</w>": 7354,
  "1986</w>": 7355,
  "rational</w>": 7356,
  "intensities</w>": 7357,
  "encephalopathy</w>": 7358,
  "kerat": 7359,
  "HS": 7360,
  "PAF</w>": 7361,
  "Fr": 7362,
  "venom</w>": 7363,
  "concerned</w>": 7364,
  "discriminate</w>": 7365,
  "rs</w>": 7366,
  "possibilities</w>": 7367,
  "span</w>": 7368,
  "exceeded</w>": 7369,
  "grades</w>": 7370,
  "cerebrovascular</w>": 7371,
  "digestive</w>": 7372,
  "Tri": 7373,
  "characterised</w>": 7374,
  "ere": 7375,
  "disseminated</w>": 7376,
  "ca</w>": 7377,
  "stents</w>": 7378,
  "1b</w>": 7379,
  "endothelin</w>": 7380,
  "IT</w>": 7381,
  "displays</w>": 7382,
  "PCA</w>": 7383,
  "lactic</w>": 7384,
  "neoplasm</w>": 7385,
  "asis</w>": 7386,
  "stratification</w>": 7387,
  "exploratory</w>": 7388,
  "vas": 7389,
  "pose</w>": 7390,
  "Glu</w>": 7391,
  "tivity</w>": 7392,
  "electrolyte</w>": 7393,
  "spring</w>": 7394,
  "BW</w>": 7395,
  "accessory</w>": 7396,
  "Initial</w>": 7397,
  "verify</w>": 7398,
  "positioning</w>": 7399,
  "decompression</w>": 7400,
  "sa": 7401,
  "angiogenic</w>": 7402,
  "enteric</w>": 7403,
  "suppresses</w>": 7404,
  "CRF</w>": 7405,
  "silicon</w>": 7406,
  "adenylate</w>": 7407,
  "ine": 7408,
  "hetero": 7409,
  "Coronary</w>": 7410,
  "implement</w>": 7411,
  "summarized</w>": 7412,
  "go</w>": 7413,
  "Glu": 7414,
  "tight</w>": 7415,
  "gra": 7416,
  "applicability</w>": 7417,
  "Injury</w>": 7418,
  "Before</w>": 7419,
  "tal</w>": 7420,
  "ICC</w>": 7421,
  "thymic</w>": 7422,
  "accomplished</w>": 7423,
  "CTL</w>": 7424,
  "endometriosis</w>": 7425,
  "pyridine</w>": 7426,
  "ment": 7427,
  "eliminate</w>": 7428,
  "spot</w>": 7429,
  "pneum": 7430,
  "tropical</w>": 7431,
  "TD</w>": 7432,
  "Rec": 7433,
  "traffic</w>": 7434,
  "Pt</w>": 7435,
  "taste</w>": 7436,
  "thereafter</w>": 7437,
  "Maternal</w>": 7438,
  "dislocation</w>": 7439,
  "medi": 7440,
  "presentations</w>": 7441,
  "H2O</w>": 7442,
  "ductal</w>": 7443,
  "eng": 7444,
  "wrist</w>": 7445,
  "arg": 7446,
  "lim": 7447,
  "intrauterine</w>": 7448,
  "propofol</w>": 7449,
  "-7</w>": 7450,
  "phenylalanine</w>": 7451,
  "allelic</w>": 7452,
  "France</w>": 7453,
  "patency</w>": 7454,
  "protects</w>": 7455,
  "rules</w>": 7456,
  "epileptic</w>": 7457,
  "keratinocytes</w>": 7458,
  "breakdown</w>": 7459,
  "comorbidity</w>": 7460,
  "polyclonal</w>": 7461,
  "115</w>": 7462,
  "oses</w>": 7463,
  "parenteral</w>": 7464,
  "Surface</w>": 7465,
  "drivers</w>": 7466,
  "phantom</w>": 7467,
  "serological</w>": 7468,
  "den</w>": 7469,
  "confocal</w>": 7470,
  "nano</w>": 7471,
  "Pre</w>": 7472,
  "electrophoretic</w>": 7473,
  "medicinal</w>": 7474,
  "Determination</w>": 7475,
  "hematoma</w>": 7476,
  "luciferase</w>": 7477,
  "ler</w>": 7478,
  "ure": 7479,
  "organ": 7480,
  "exerted</w>": 7481,
  "reconstructed</w>": 7482,
  "Psych": 7483,
  "ty</w>": 7484,
  "sludge</w>": 7485,
  "rescue</w>": 7486,
  "APC</w>": 7487,
  "specified</w>": 7488,
  "NG</w>": 7489,
  "otropic</w>": 7490,
  "radioactive</w>": 7491,
  "telephone</w>": 7492,
  "add</w>": 7493,
  "Addition</w>": 7494,
  "Eleven</w>": 7495,
  "SBP</w>": 7496,
  "vertebrate</w>": 7497,
  "1R</w>": 7498,
  "gonadotropin</w>": 7499,
  "cat": 7500,
  "sts</w>": 7501,
  "Registry</w>": 7502,
  "particulate</w>": 7503,
  "grouped</w>": 7504,
  "creating</w>": 7505,
  "locomotor</w>": 7506,
  "habitat</w>": 7507,
  "discontinuation</w>": 7508,
  "cyst": 7509,
  "ens": 7510,
  "sector</w>": 7511,
  "amniotic</w>": 7512,
  "ending</w>": 7513,
  "bromide</w>": 7514,
  "microglia</w>": 7515,
  "CK": 7516,
  "regurgitation</w>": 7517,
  "Out</w>": 7518,
  "fabrication</w>": 7519,
  "tol": 7520,
  "pathophysiological</w>": 7521,
  "port</w>": 7522,
  "antiserum</w>": 7523,
  "hands</w>": 7524,
  "safely</w>": 7525,
  "forearm</w>": 7526,
  "Vitamin</w>": 7527,
  "cin": 7528,
  "transferrin</w>": 7529,
  "gingival</w>": 7530,
  "monthly</w>": 7531,
  "sur": 7532,
  "crop</w>": 7533,
  "confirming</w>": 7534,
  "pharmacy</w>": 7535,
  "neuroblastoma</w>": 7536,
  "experiencing</w>": 7537,
  "fungus</w>": 7538,
  "breaks</w>": 7539,
  "p21</w>": 7540,
  "vulnerability</w>": 7541,
  "Os": 7542,
  "percentages</w>": 7543,
  "yp": 7544,
  "selenium</w>": 7545,
  "breastfeeding</w>": 7546,
  "restore</w>": 7547,
  "Tra": 7548,
  "RCC</w>": 7549,
  "altering</w>": 7550,
  "geographical</w>": 7551,
  "abdomen</w>": 7552,
  "ith": 7553,
  "RB": 7554,
  "ulcerative</w>": 7555,
  "arrangement</w>": 7556,
  "sequelae</w>": 7557,
  "Preoperative</w>": 7558,
  "overexpressed</w>": 7559,
  "ALT</w>": 7560,
  "leukemic</w>": 7561,
  "psychosis</w>": 7562,
  "margins</w>": 7563,
  "RV": 7564,
  "dimethyl</w>": 7565,
  "Approximately</w>": 7566,
  "assumption</w>": 7567,
  "chart</w>": 7568,
  "semen</w>": 7569,
  "bundle</w>": 7570,
  "primer</w>": 7571,
  "deformation</w>": 7572,
  "ultrasonic</w>": 7573,
  "SUMMARY</w>": 7574,
  "filament</w>": 7575,
  "striking</w>": 7576,
  "trafficking</w>": 7577,
  "Ninety</w>": 7578,
  "pivotal</w>": 7579,
  "Aspergillus</w>": 7580,
  "granulocyte</w>": 7581,
  "prote": 7582,
  "sy": 7583,
  "orders</w>": 7584,
  "interventional</w>": 7585,
  "els</w>": 7586,
  "Young</w>": 7587,
  "BSA</w>": 7588,
  "pol": 7589,
  "Li</w>": 7590,
  "cyclo": 7591,
  "transcriptase</w>": 7592,
  "claims</w>": 7593,
  "outbreaks</w>": 7594,
  "myel": 7595,
  "SB</w>": 7596,
  "L2</w>": 7597,
  "dissolved</w>": 7598,
  "LF</w>": 7599,
  "executive</w>": 7600,
  "Subsequently</w>": 7601,
  "OSA</w>": 7602,
  "corticosteroid</w>": 7603,
  "olar</w>": 7604,
  "disrupted</w>": 7605,
  "NT": 7606,
  "oides</w>": 7607,
  "TEM</w>": 7608,
  "exerts</w>": 7609,
  "hydroxyl</w>": 7610,
  "sole</w>": 7611,
  "floor</w>": 7612,
  "matrices</w>": 7613,
  "boy</w>": 7614,
  "genic</w>": 7615,
  "consequently</w>": 7616,
  "confirms</w>": 7617,
  "PDGF</w>": 7618,
  "faculty</w>": 7619,
  "sagittal</w>": 7620,
  "differentiating</w>": 7621,
  "mit": 7622,
  "granular</w>": 7623,
  "onia</w>": 7624,
  "aquatic</w>": 7625,
  "dro": 7626,
  "Unlike</w>": 7627,
  "postsynaptic</w>": 7628,
  "hierarchical</w>": 7629,
  "ging</w>": 7630,
  "ong": 7631,
  "intercellular</w>": 7632,
  "go": 7633,
  "methylated</w>": 7634,
  "differently</w>": 7635,
  "K2</w>": 7636,
  "107</w>": 7637,
  "nude</w>": 7638,
  "ischaemic</w>": 7639,
  "guanine</w>": 7640,
  "weakly</w>": 7641,
  "Emergency</w>": 7642,
  "supplement</w>": 7643,
  "neuropsychological</w>": 7644,
  "priority</w>": 7645,
  "muscarinic</w>": 7646,
  "chimeric</w>": 7647,
  "scintigraphy</w>": 7648,
  "Es</w>": 7649,
  "PMN</w>": 7650,
  "cytoskeleton</w>": 7651,
  "suffer</w>": 7652,
  "lat": 7653,
  "aff": 7654,
  "som": 7655,
  "cyto": 7656,
  "homes</w>": 7657,
  "Bayesian</w>": 7658,
  "Spain</w>": 7659,
  "sheet</w>": 7660,
  "Gen": 7661,
  "oro": 7662,
  "genera</w>": 7663,
  "otype</w>": 7664,
  "Mutations</w>": 7665,
  "ce": 7666,
  "Italian</w>": 7667,
  "C3": 7668,
  "apolipoprotein</w>": 7669,
  "specialist</w>": 7670,
  "arsenic</w>": 7671,
  "salvage</w>": 7672,
  "accordance</w>": 7673,
  "ats</w>": 7674,
  "SL</w>": 7675,
  "APP</w>": 7676,
  "EDTA</w>": 7677,
  "insensitive</w>": 7678,
  "sulph": 7679,
  "Spanish</w>": 7680,
  "geometric</w>": 7681,
  "board</w>": 7682,
  "TO": 7683,
  "raise</w>": 7684,
  "Dec": 7685,
  "Radi": 7686,
  "rearrangement</w>": 7687,
  "hygiene</w>": 7688,
  "emphasize</w>": 7689,
  "PAI</w>": 7690,
  "morning</w>": 7691,
  "iv</w>": 7692,
  "otoxin</w>": 7693,
  "arrhythmia</w>": 7694,
  "tear</w>": 7695,
  "TL": 7696,
  "extending</w>": 7697,
  "LM</w>": 7698,
  "Virus</w>": 7699,
  "BL</w>": 7700,
  "ately</w>": 7701,
  "weaning</w>": 7702,
  "investigators</w>": 7703,
  "iNOS</w>": 7704,
  "duplication</w>": 7705,
  "suicidal</w>": 7706,
  "ship</w>": 7707,
  "osomal</w>": 7708,
  "CRT</w>": 7709,
  "dried</w>": 7710,
  "TPA</w>": 7711,
  "Chemical</w>": 7712,
  "chance</w>": 7713,
  "proteinuria</w>": 7714,
  "Water</w>": 7715,
  "CYP": 7716,
  "Selective</w>": 7717,
  "salts</w>": 7718,
  "ural</w>": 7719,
  "Phe</w>": 7720,
  "aberrations</w>": 7721,
  "Flow</w>": 7722,
  "FGF</w>": 7723,
  "comm": 7724,
  "chemokine</w>": 7725,
  "contrary</w>": 7726,
  "rodents</w>": 7727,
  "Major</w>": 7728,
  "reliably</w>": 7729,
  "aminotransferase</w>": 7730,
  "Acid</w>": 7731,
  "quinone</w>": 7732,
  "Dietary</w>": 7733,
  "scaling</w>": 7734,
  "routes</w>": 7735,
  "serotype</w>": 7736,
  "Pharmac": 7737,
  "recurrences</w>": 7738,
  "intention</w>": 7739,
  "Analyses</w>": 7740,
  "judged</w>": 7741,
  "fluorescein</w>": 7742,
  "hydrogel</w>": 7743,
  "ered</w>": 7744,
  "satisfied</w>": 7745,
  "polyethylene</w>": 7746,
  "initiating</w>": 7747,
  "ond": 7748,
  "tric": 7749,
  "Ala</w>": 7750,
  "hepatocyte</w>": 7751,
  "retin": 7752,
  "capabilities</w>": 7753,
  "om</w>": 7754,
  "Internet</w>": 7755,
  "Preliminary</w>": 7756,
  "adherent</w>": 7757,
  "stop</w>": 7758,
  "Fifteen</w>": 7759,
  "avoided</w>": 7760,
  "Pa": 7761,
  "aries</w>": 7762,
  "energies</w>": 7763,
  "extr": 7764,
  "attributes</w>": 7765,
  "cuff</w>": 7766,
  "infusions</w>": 7767,
  "indirectly</w>": 7768,
  "college</w>": 7769,
  "fen": 7770,
  "sent</w>": 7771,
  "conducting</w>": 7772,
  "lamina</w>": 7773,
  "disabilities</w>": 7774,
  "opinion</w>": 7775,
  "wards</w>": 7776,
  "creatine</w>": 7777,
  "flo": 7778,
  "Vascular</w>": 7779,
  "confounding</w>": 7780,
  "PRO": 7781,
  "ascending</w>": 7782,
  "Vs</w>": 7783,
  "haplotype</w>": 7784,
  "dissolution</w>": 7785,
  "DL</w>": 7786,
  "bas": 7787,
  "HB</w>": 7788,
  "Relationship</w>": 7789,
  "beads</w>": 7790,
  "medicines</w>": 7791,
  "oligonucleotide</w>": 7792,
  "somewhat</w>": 7793,
  "acceptor</w>": 7794,
  "comp": 7795,
  "CA1</w>": 7796,
  "encapsulated</w>": 7797,
  "im</w>": 7798,
  "substitutions</w>": 7799,
  "ket": 7800,
  "Measurement</w>": 7801,
  "dentin</w>": 7802,
  "sn": 7803,
  "facilitating</w>": 7804,
  "NAFLD</w>": 7805,
  "conceptual</w>": 7806,
  "Ba": 7807,
  "Enhanced</w>": 7808,
  "medullary</w>": 7809,
  "nanoparticle</w>": 7810,
  "phosphatidylinositol</w>": 7811,
  "neurones</w>": 7812,
  "apo</w>": 7813,
  "hydrophilic</w>": 7814,
  "Metabolic</w>": 7815,
  "32": 7816,
  "Ras</w>": 7817,
  "gp": 7818,
  "enlargement</w>": 7819,
  "Measurements</w>": 7820,
  "ble</w>": 7821,
  "hysterectomy</w>": 7822,
  "thiol</w>": 7823,
  "Her": 7824,
  "taxa</w>": 7825,
  "acy</w>": 7826,
  "chemotherapeutic</w>": 7827,
  "mesh</w>": 7828,
  "covalent</w>": 7829,
  "laparotomy</w>": 7830,
  "origins</w>": 7831,
  "Normal</w>": 7832,
  "airways</w>": 7833,
  "Another</w>": 7834,
  "detachment</w>": 7835,
  "ess</w>": 7836,
  "omycin</w>": 7837,
  "tea</w>": 7838,
  "debate</w>": 7839,
  "mtDNA</w>": 7840,
  "Aβ</w>": 7841,
  "MTX</w>": 7842,
  "fractionation</w>": 7843,
  "morphologic</w>": 7844,
  "echocardiographic</w>": 7845,
  "Ti</w>": 7846,
  "contraceptive</w>": 7847,
  "dissemination</w>": 7848,
  "US": 7849,
  "AKT</w>": 7850,
  "2B</w>": 7851,
  "RD</w>": 7852,
  "Er": 7853,
  "flat</w>": 7854,
  "spec": 7855,
  "cleaved</w>": 7856,
  "confirmation</w>": 7857,
  "outflow</w>": 7858,
  "stroma</w>": 7859,
  "Bs</w>": 7860,
  "anth": 7861,
  "curriculum</w>": 7862,
  "inconsistent</w>": 7863,
  "moment</w>": 7864,
  "Cardiovascular</w>": 7865,
  "131</w>": 7866,
  "crisis</w>": 7867,
  "mu": 7868,
  "dem": 7869,
  "pulp</w>": 7870,
  "IF</w>": 7871,
  "lattice</w>": 7872,
  "MO</w>": 7873,
  "spreading</w>": 7874,
  "Sensitivity</w>": 7875,
  "wood</w>": 7876,
  "adducts</w>": 7877,
  "harvested</w>": 7878,
  "stressed</w>": 7879,
  "excited</w>": 7880,
  "visualized</w>": 7881,
  "originating</w>": 7882,
  "Considering</w>": 7883,
  "adipocytes</w>": 7884,
  "functionality</w>": 7885,
  "divergence</w>": 7886,
  "Ge": 7887,
  "acceleration</w>": 7888,
  "diameters</w>": 7889,
  "MDR</w>": 7890,
  "work": 7891,
  "Upon</w>": 7892,
  "amphetamine</w>": 7893,
  "109</w>": 7894,
  "radioimmunoassay</w>": 7895,
  "biomechanical</w>": 7896,
  "observer</w>": 7897,
  "stream</w>": 7898,
  "hypertrophic</w>": 7899,
  "bic": 7900,
  "couples</w>": 7901,
  "timely</w>": 7902,
  "aw": 7903,
  "dominated</w>": 7904,
  "compromised</w>": 7905,
  "idin</w>": 7906,
  "Little</w>": 7907,
  "encode</w>": 7908,
  "assistance</w>": 7909,
  "exons</w>": 7910,
  "tailored</w>": 7911,
  "Sleep</w>": 7912,
  "periodontitis</w>": 7913,
  "fore": 7914,
  "look</w>": 7915,
  "normotensive</w>": 7916,
  "BF</w>": 7917,
  "pharmacologic</w>": 7918,
  "atin</w>": 7919,
  "rely</w>": 7920,
  "truncated</w>": 7921,
  "counting</w>": 7922,
  "call</w>": 7923,
  "MSC</w>": 7924,
  "ital</w>": 7925,
  "ming</w>": 7926,
  "Ly": 7927,
  "olic</w>": 7928,
  "reagent</w>": 7929,
  "sch": 7930,
  "des</w>": 7931,
  "1st</w>": 7932,
  "methane</w>": 7933,
  "RE</w>": 7934,
  "CHO</w>": 7935,
  "gradual</w>": 7936,
  "decomposition</w>": 7937,
  "aly": 7938,
  "DH</w>": 7939,
  "112</w>": 7940,
  "enic</w>": 7941,
  "actually</w>": 7942,
  "π</w>": 7943,
  "react</w>": 7944,
  "SG</w>": 7945,
  "girl</w>": 7946,
  "ci": 7947,
  "immobilization</w>": 7948,
  "melan": 7949,
  "hold</w>": 7950,
  "totally</w>": 7951,
  "acidosis</w>": 7952,
  "1,4</w>": 7953,
  "malformation</w>": 7954,
  "harm</w>": 7955,
  "Stroke</w>": 7956,
  "circuits</w>": 7957,
  "aris</w>": 7958,
  "occipital</w>": 7959,
  "Pe": 7960,
  "title</w>": 7961,
  "solvents</w>": 7962,
  "Op": 7963,
  "waters</w>": 7964,
  "polyps</w>": 7965,
  "ane": 7966,
  "reflection</w>": 7967,
  "drought</w>": 7968,
  "ICAM</w>": 7969,
  "hyperglycemia</w>": 7970,
  "potentiation</w>": 7971,
  "phagocytosis</w>": 7972,
  "irregular</w>": 7973,
  "update</w>": 7974,
  "trajectories</w>": 7975,
  "originally</w>": 7976,
  "district</w>": 7977,
  "dic</w>": 7978,
  "LN</w>": 7979,
  "ACL</w>": 7980,
  "addiction</w>": 7981,
  "antioxidants</w>": 7982,
  "ease</w>": 7983,
  "naive</w>": 7984,
  "prostheses</w>": 7985,
  "transplants</w>": 7986,
  "felt</w>": 7987,
  "metformin</w>": 7988,
  "vocal</w>": 7989,
  "brought</w>": 7990,
  "endpoints</w>": 7991,
  "ash</w>": 7992,
  "today</w>": 7993,
  "fitted</w>": 7994,
  "Brazilian</w>": 7995,
  "Hom": 7996,
  "Systemic</w>": 7997,
  "PCs</w>": 7998,
  "accumulate</w>": 7999,
  "tonic</w>": 8000,
  "CAP</w>": 8001,
  "BCG</w>": 8002,
  "stain</w>": 8003,
  "prompt</w>": 8004,
  "-10</w>": 8005,
  "thrombotic</w>": 8006,
  "Resistance</w>": 8007,
  "obi": 8008,
  "monomer</w>": 8009,
  "ifying</w>": 8010,
  ",": 8011,
  "England</w>": 8012,
  "sigma</w>": 8013,
  "Vi": 8014,
  "03</w>": 8015,
  "dilation</w>": 8016,
  "AT1</w>": 8017,
  "signature</w>": 8018,
  "successive</w>": 8019,
  "audi": 8020,
  "paid</w>": 8021,
  "titer</w>": 8022,
  "GT": 8023,
  "oxy</w>": 8024,
  "derive</w>": 8025,
  "scheduled</w>": 8026,
  "VIP</w>": 8027,
  "Lys</w>": 8028,
  "retinoic</w>": 8029,
  "99": 8030,
  "spaces</w>": 8031,
  "cholecystectomy</w>": 8032,
  "instances</w>": 8033,
  "anticoagulant</w>": 8034,
  "AVP</w>": 8035,
  "14.": 8036,
  "Accordingly</w>": 8037,
  "bilayer</w>": 8038,
  "oncogenic</w>": 8039,
  "cutoff</w>": 8040,
  "circulatory</w>": 8041,
  "mac": 8042,
  "0.99</w>": 8043,
  "manifested</w>": 8044,
  "MCP</w>": 8045,
  "oxytocin</w>": 8046,
  "thermo": 8047,
  "convenient</w>": 8048,
  "interfering</w>": 8049,
  "gi": 8050,
  "JNK</w>": 8051,
  "postulated</w>": 8052,
  "128</w>": 8053,
  "entirely</w>": 8054,
  "implementing</w>": 8055,
  "Cys</w>": 8056,
  "neuroprotective</w>": 8057,
  "STAT3</w>": 8058,
  "anticoagulation</w>": 8059,
  "glycemic</w>": 8060,
  "ach</w>": 8061,
  "Taiwan</w>": 8062,
  "gran": 8063,
  "inversion</w>": 8064,
  "synthesize</w>": 8065,
  "globulin</w>": 8066,
  "tick</w>": 8067,
  "IVF</w>": 8068,
  "nephro": 8069,
  "240</w>": 8070,
  "failures</w>": 8071,
  "transcriptome</w>": 8072,
  "solely</w>": 8073,
  "scenario</w>": 8074,
  "Possible</w>": 8075,
  "9.9</w>": 8076,
  "landscape</w>": 8077,
  "Whether</w>": 8078,
  "excised</w>": 8079,
  "epidermis</w>": 8080,
  "ap</w>": 8081,
  "labelling</w>": 8082,
  "oesophageal</w>": 8083,
  "attended</w>": 8084,
  "revealing</w>": 8085,
  "135</w>": 8086,
  "Loss</w>": 8087,
  "delays</w>": 8088,
  "Yet</w>": 8089,
  "supplements</w>": 8090,
  "harmful</w>": 8091,
  "HBsAg</w>": 8092,
  "170</w>": 8093,
  "pyramidal</w>": 8094,
  "MK</w>": 8095,
  "ster</w>": 8096,
  "116</w>": 8097,
  "tetracycline</w>": 8098,
  "fac": 8099,
  "build</w>": 8100,
  "proteinase</w>": 8101,
  "neur": 8102,
  "lenses</w>": 8103,
  "borderline</w>": 8104,
  "fitting</w>": 8105,
  "nov</w>": 8106,
  "basement</w>": 8107,
  "bio</w>": 8108,
  "la</w>": 8109,
  "viewed</w>": 8110,
  "Au": 8111,
  "psychotic</w>": 8112,
  "disordered</w>": 8113,
  "apart</w>": 8114,
  "soon</w>": 8115,
  "Pal": 8116,
  "angiographic</w>": 8117,
  "compensation</w>": 8118,
  "chrom": 8119,
  "rationale</w>": 8120,
  "desirable</w>": 8121,
  "elbow</w>": 8122,
  "Left</w>": 8123,
  "tablets</w>": 8124,
  "phosphatidylcholine</w>": 8125,
  "Oste": 8126,
  "0.09</w>": 8127,
  "sulphate</w>": 8128,
  "vancomycin</w>": 8129,
  "unlike</w>": 8130,
  "aryl</w>": 8131,
  "pi</w>": 8132,
  "rac": 8133,
  "efficacious</w>": 8134,
  "helps</w>": 8135,
  "vasculature</w>": 8136,
  "contexts</w>": 8137,
  "solitary</w>": 8138,
  "bacteri": 8139,
  "regularly</w>": 8140,
  "strengths</w>": 8141,
  "ide": 8142,
  "eradication</w>": 8143,
  "orb": 8144,
  "vin": 8145,
  "β": 8146,
  "deleterious</w>": 8147,
  "clients</w>": 8148,
  "Ro": 8149,
  "fly</w>": 8150,
  "Th1</w>": 8151,
  "cm2</w>": 8152,
  "expensive</w>": 8153,
  "extremities</w>": 8154,
  "inability</w>": 8155,
  "pil": 8156,
  "WS</w>": 8157,
  "medulla</w>": 8158,
  "SK": 8159,
  "I.</w>": 8160,
  "creation</w>": 8161,
  "Du": 8162,
  "ys": 8163,
  "microRNA</w>": 8164,
  "get</w>": 8165,
  "allocation</w>": 8166,
  "suspicion</w>": 8167,
  "HTLV</w>": 8168,
  "regenerative</w>": 8169,
  "spots</w>": 8170,
  "PAGE</w>": 8171,
  "micromol</w>": 8172,
  "FM</w>": 8173,
  "designing</w>": 8174,
  "ecosystem</w>": 8175,
  "sible</w>": 8176,
  "office</w>": 8177,
  "na": 8178,
  "deposited</w>": 8179,
  "distinctive</w>": 8180,
  "lam": 8181,
  "ick</w>": 8182,
  "SN</w>": 8183,
  "asthmatic</w>": 8184,
  "oline</w>": 8185,
  "ences</w>": 8186,
  "pertussis</w>": 8187,
  "pocket</w>": 8188,
  "learn</w>": 8189,
  "mic": 8190,
  "subtilis</w>": 8191,
  "din": 8192,
  "Baseline</w>": 8193,
  "dead</w>": 8194,
  "Ang</w>": 8195,
  "amp": 8196,
  "doped</w>": 8197,
  "Min": 8198,
  "lac": 8199,
  "metrics</w>": 8200,
  "worm</w>": 8201,
  "alive</w>": 8202,
  "dengue</w>": 8203,
  "lab": 8204,
  "lidocaine</w>": 8205,
  "contemporary</w>": 8206,
  "nitrite</w>": 8207,
  "meaning</w>": 8208,
  "BB</w>": 8209,
  "pandemic</w>": 8210,
  "stretch</w>": 8211,
  "paraffin</w>": 8212,
  "Intra": 8213,
  "vena</w>": 8214,
  "osyl</w>": 8215,
  "ASA</w>": 8216,
  "pollutants</w>": 8217,
  "reserve</w>": 8218,
  "interactive</w>": 8219,
  "negligible</w>": 8220,
  "physicochemical</w>": 8221,
  "postural</w>": 8222,
  "SK</w>": 8223,
  "ultra</w>": 8224,
  "valves</w>": 8225,
  "myc</w>": 8226,
  "opathies</w>": 8227,
  "ICP</w>": 8228,
  "ads</w>": 8229,
  "battery</w>": 8230,
  "electrostatic</w>": 8231,
  "201</w>": 8232,
  "Black</w>": 8233,
  "ET": 8234,
  "parametric</w>": 8235,
  "hydration</w>": 8236,
  "York</w>": 8237,
  "positron</w>": 8238,
  "missed</w>": 8239,
  "ovulation</w>": 8240,
  "mind</w>": 8241,
  "accident</w>": 8242,
  "Urinary</w>": 8243,
  "malnutrition</w>": 8244,
  "qPCR</w>": 8245,
  "functionalized</w>": 8246,
  "break</w>": 8247,
  "biphasic</w>": 8248,
  "Function</w>": 8249,
  "deficiencies</w>": 8250,
  "atmospheric</w>": 8251,
  "wire</w>": 8252,
  "122</w>": 8253,
  "racial</w>": 8254,
  "hybrids</w>": 8255,
  "Down</w>": 8256,
  "warfarin</w>": 8257,
  "amongst</w>": 8258,
  "proximity</w>": 8259,
  "heterologous</w>": 8260,
  "develops</w>": 8261,
  "SES</w>": 8262,
  "wider</w>": 8263,
  "proteasome</w>": 8264,
  "subpopulations</w>": 8265,
  "osteotomy</w>": 8266,
  "escape</w>": 8267,
  "ening</w>": 8268,
  "generic</w>": 8269,
  "MTT</w>": 8270,
  "advice</w>": 8271,
  "supernatant</w>": 8272,
  "2R</w>": 8273,
  "pat": 8274,
  "Light</w>": 8275,
  "aur": 8276,
  "Syn": 8277,
  "palate</w>": 8278,
  "eal</w>": 8279,
  "fu": 8280,
  "hypothermia</w>": 8281,
  "septum</w>": 8282,
  "semantic</w>": 8283,
  "Mr</w>": 8284,
  "izes</w>": 8285,
  "shed</w>": 8286,
  "diagnostics</w>": 8287,
  "SUBJECTS</w>": 8288,
  "immunoprecipitation</w>": 8289,
  "155</w>": 8290,
  "hemodynamics</w>": 8291,
  "Trials</w>": 8292,
  "lag</w>": 8293,
  "GF</w>": 8294,
  "fruits</w>": 8295,
  "organizational</w>": 8296,
  "discomfort</w>": 8297,
  "ICA</w>": 8298,
  "Related</w>": 8299,
  "₂</w>": 8300,
  "leukaemia</w>": 8301,
  "nickel</w>": 8302,
  "GBM</w>": 8303,
  "patches</w>": 8304,
  "RSV</w>": 8305,
  "Po": 8306,
  "proliferating</w>": 8307,
  "canonical</w>": 8308,
  "linearly</w>": 8309,
  "NCT0": 8310,
  "Isolation</w>": 8311,
  "0.10</w>": 8312,
  "military</w>": 8313,
  "argue</w>": 8314,
  "pyrid": 8315,
  "ric": 8316,
  "Th2</w>": 8317,
  "sphincter</w>": 8318,
  "2b</w>": 8319,
  "cured</w>": 8320,
  "CBF</w>": 8321,
  "pyr": 8322,
  "endocarditis</w>": 8323,
  "triggers</w>": 8324,
  "illnesses</w>": 8325,
  "emb": 8326,
  "possesses</w>": 8327,
  "amid": 8328,
  "tion": 8329,
  "intravascular</w>": 8330,
  "necessarily</w>": 8331,
  "sion</w>": 8332,
  "Del": 8333,
  "NB</w>": 8334,
  "cervix</w>": 8335,
  "notion</w>": 8336,
  "zed</w>": 8337,
  "utilize</w>": 8338,
  "thickening</w>": 8339,
  "microtubules</w>": 8340,
  "bis": 8341,
  "Free</w>": 8342,
  "checkpoint</w>": 8343,
  "aggregate</w>": 8344,
  "hydrolase</w>": 8345,
  "polarity</w>": 8346,
  "VIII</w>": 8347,
  "puncture</w>": 8348,
  "microns</w>": 8349,
  "Induction</w>": 8350,
  "detrimental</w>": 8351,
  "surgeries</w>": 8352,
  "carboxyl</w>": 8353,
  "tia</w>": 8354,
  "adoption</w>": 8355,
  "MEASUREMENTS</w>": 8356,
  "MY": 8357,
  "overload</w>": 8358,
  "Peripheral</w>": 8359,
  "parasitic</w>": 8360,
  "Bu": 8361,
  "polymeric</w>": 8362,
  "Arg": 8363,
  "favor</w>": 8364,
  "Samples</w>": 8365,
  "nose</w>": 8366,
  "accessibility</w>": 8367,
  "04</w>": 8368,
  "permits</w>": 8369,
  "air": 8370,
  "corresponded</w>": 8371,
  "We": 8372,
  "Caucasian</w>": 8373,
  "exploring</w>": 8374,
  "track</w>": 8375,
  "style</w>": 8376,
  "-8</w>": 8377,
  "tunnel</w>": 8378,
  "freezing</w>": 8379,
  "ip</w>": 8380,
  "ulating</w>": 8381,
  "DA": 8382,
  "aggression</w>": 8383,
  "Flu": 8384,
  "freeze</w>": 8385,
  "ACC</w>": 8386,
  "disparities</w>": 8387,
  "CoV</w>": 8388,
  "Bacterial</w>": 8389,
  "chondrocytes</w>": 8390,
  "2,4</w>": 8391,
  "3A</w>": 8392,
  "arteriovenous</w>": 8393,
  "DT</w>": 8394,
  "ie": 8395,
  "Har": 8396,
  "hypothyroidism</w>": 8397,
  "ANP</w>": 8398,
  "grass</w>": 8399,
  "ense</w>": 8400,
  "REGISTRATION</w>": 8401,
  "ue</w>": 8402,
  "deviations</w>": 8403,
  "batch</w>": 8404,
  "segregation</w>": 8405,
  "progenitors</w>": 8406,
  "wh": 8407,
  "kcal</w>": 8408,
  "sedentary</w>": 8409,
  "module</w>": 8410,
  "ading</w>": 8411,
  "0.006</w>": 8412,
  "Lower</w>": 8413,
  "mediastinal</w>": 8414,
  "na</w>": 8415,
  "icul": 8416,
  "LL</w>": 8417,
  "horn</w>": 8418,
  "composites</w>": 8419,
  "AK": 8420,
  "alizing</w>": 8421,
  "babies</w>": 8422,
  "ote</w>": 8423,
  "contractility</w>": 8424,
  "alternatives</w>": 8425,
  "incremental</w>": 8426,
  "herbal</w>": 8427,
  "epidemiologic</w>": 8428,
  "osteosarcoma</w>": 8429,
  "114</w>": 8430,
  "deduced</w>": 8431,
  "suppressing</w>": 8432,
  "disappearance</w>": 8433,
  "MDD</w>": 8434,
  "glioblastoma</w>": 8435,
  "existed</w>": 8436,
  "e-</w>": 8437,
  "reservoir</w>": 8438,
  "rearrangements</w>": 8439,
  "Delta": 8440,
  "documentation</w>": 8441,
  "Ob": 8442,
  "GF": 8443,
  "cytomegalovirus</w>": 8444,
  "innervation</w>": 8445,
  "dependently</w>": 8446,
  "BMP</w>": 8447,
  "permit</w>": 8448,
  "nocturnal</w>": 8449,
  "metallic</w>": 8450,
  "neurotransmitter</w>": 8451,
  "ious</w>": 8452,
  "read</w>": 8453,
  "analytic</w>": 8454,
  "Indeed</w>": 8455,
  "SARS</w>": 8456,
  "filters</w>": 8457,
  "diabetics</w>": 8458,
  "cigarettes</w>": 8459,
  "pine</w>": 8460,
  "rising</w>": 8461,
  "lin</w>": 8462,
  "WM</w>": 8463,
  "fuel</w>": 8464,
  "carbonyl</w>": 8465,
  "outpatients</w>": 8466,
  "works</w>": 8467,
  "Asp</w>": 8468,
  "hyperactivity</w>": 8469,
  "myo": 8470,
  "imbalance</w>": 8471,
  "chemo": 8472,
  "off": 8473,
  "uni": 8474,
  "expanding</w>": 8475,
  "hypoglycemia</w>": 8476,
  "nic": 8477,
  "loops</w>": 8478,
  "IX</w>": 8479,
  "Tyr</w>": 8480,
  "modeled</w>": 8481,
  "NA": 8482,
  "tical</w>": 8483,
  "yielding</w>": 8484,
  "dodecyl</w>": 8485,
  "sputum</w>": 8486,
  "8,": 8487,
  "Val": 8488,
  "subclinical</w>": 8489,
  "cam": 8490,
  "stepwise</w>": 8491,
  "naloxone</w>": 8492,
  "vir": 8493,
  "Sweden</w>": 8494,
  "yst": 8495,
  "sparing</w>": 8496,
  "galactose</w>": 8497,
  "gains</w>": 8498,
  "employees</w>": 8499,
  "catalysis</w>": 8500,
  "rheumatic</w>": 8501,
  "od</w>": 8502,
  "124</w>": 8503,
  "Groups</w>": 8504,
  "tolerability</w>": 8505,
  "refractive</w>": 8506,
  "surviving</w>": 8507,
  "te</w>": 8508,
  "spatially</w>": 8509,
  "specialists</w>": 8510,
  "thalamic</w>": 8511,
  "amplitudes</w>": 8512,
  "down": 8513,
  "voice</w>": 8514,
  "duplex</w>": 8515,
  "proof</w>": 8516,
  "TOF</w>": 8517,
  "oz": 8518,
  "3a</w>": 8519,
  "FISH</w>": 8520,
  "Histological</w>": 8521,
  "1alpha</w>": 8522,
  "amputation</w>": 8523,
  "trophic</w>": 8524,
  "entities</w>": 8525,
  "tightly</w>": 8526,
  "biosynthetic</w>": 8527,
  "AH</w>": 8528,
  "lytic</w>": 8529,
  "presumed</w>": 8530,
  "Classification</w>": 8531,
  "PCa</w>": 8532,
  "tamoxifen</w>": 8533,
  "generates</w>": 8534,
  "avoiding</w>": 8535,
  "imply</w>": 8536,
  "prepare</w>": 8537,
  "teams</w>": 8538,
  "tolerant</w>": 8539,
  "road</w>": 8540,
  "3T3</w>": 8541,
  "assumptions</w>": 8542,
  "du": 8543,
  "Not</w>": 8544,
  "physically</w>": 8545,
  "H2": 8546,
  "Immunohistochemical</w>": 8547,
  "move</w>": 8548,
  "definitions</w>": 8549,
  "39": 8550,
  "ML</w>": 8551,
  "Netherlands</w>": 8552,
  "Fourteen</w>": 8553,
  "phyto": 8554,
  "operatively</w>": 8555,
  "Mexico</w>": 8556,
  "NADH</w>": 8557,
  "tinib</w>": 8558,
  "06</w>": 8559,
  "Incidence</w>": 8560,
  "siblings</w>": 8561,
  "Pres": 8562,
  "radiography</w>": 8563,
  "0.12</w>": 8564,
  "ageing</w>": 8565,
  "Previously</w>": 8566,
  "constitutes</w>": 8567,
  "Successful</w>": 8568,
  "Tc</w>": 8569,
  "estrogens</w>": 8570,
  "FR</w>": 8571,
  "Anxiety</w>": 8572,
  "Female</w>": 8573,
  "tant</w>": 8574,
  "EV": 8575,
  "ger": 8576,
  "ileum</w>": 8577,
  "gastro": 8578,
  "inguinal</w>": 8579,
  "@</w>": 8580,
  "Longitudinal</w>": 8581,
  "expand</w>": 8582,
  "1984</w>": 8583,
  "photosynthetic</w>": 8584,
  "microspheres</w>": 8585,
  "ef": 8586,
  "insects</w>": 8587,
  "choices</w>": 8588,
  "Standard</w>": 8589,
  "plots</w>": 8590,
  "path": 8591,
  "enlarged</w>": 8592,
  "deal</w>": 8593,
  "Service</w>": 8594,
  "broader</w>": 8595,
  "vesicular</w>": 8596,
  "Whole</w>": 8597,
  "selectin</w>": 8598,
  "pesticides</w>": 8599,
  "µg</w>": 8600,
  "simply</w>": 8601,
  "robotic</w>": 8602,
  "Grade</w>": 8603,
  "67": 8604,
  "CLINICAL</w>": 8605,
  "unnecessary</w>": 8606,
  "ischaemia</w>": 8607,
  "nucleoside</w>": 8608,
  "Ir": 8609,
  "PCOS</w>": 8610,
  "interplay</w>": 8611,
  "MCI</w>": 8612,
  "extinction</w>": 8613,
  "conditional</w>": 8614,
  "Complex</w>": 8615,
  "twins</w>": 8616,
  "necessity</w>": 8617,
  "cross": 8618,
  "ram": 8619,
  "antisera</w>": 8620,
  "hand": 8621,
  "School</w>": 8622,
  "realistic</w>": 8623,
  "CpG</w>": 8624,
  "ham": 8625,
  "dextran</w>": 8626,
  "GVHD</w>": 8627,
  "eb": 8628,
  "evolving</w>": 8629,
  "Hyp": 8630,
  "dependency</w>": 8631,
  "Des": 8632,
  "regime</w>": 8633,
  "RPE</w>": 8634,
  "hematological</w>": 8635,
  "--a</w>": 8636,
  "accidents</w>": 8637,
  "GST</w>": 8638,
  "paralysis</w>": 8639,
  "emulsion</w>": 8640,
  "precisely</w>": 8641,
  "eosinophils</w>": 8642,
  "emphasized</w>": 8643,
  "plateau</w>": 8644,
  "cles</w>": 8645,
  "anol</w>": 8646,
  "Bur": 8647,
  "machinery</w>": 8648,
  "thirty</w>": 8649,
  "verapamil</w>": 8650,
  "Stimulation</w>": 8651,
  "covariates</w>": 8652,
  "clinicopathological</w>": 8653,
  "inate</w>": 8654,
  "Isolated</w>": 8655,
  "relies</w>": 8656,
  "1.25</w>": 8657,
  "omatous</w>": 8658,
  "Older</w>": 8659,
  "tidal</w>": 8660,
  "CsA</w>": 8661,
  "vis": 8662,
  "coded</w>": 8663,
  "colour</w>": 8664,
  "places</w>": 8665,
  "0.98</w>": 8666,
  "Does</w>": 8667,
  "topics</w>": 8668,
  "DD": 8669,
  "Computed</w>": 8670,
  "ash": 8671,
  "waist</w>": 8672,
  "ong</w>": 8673,
  "1.00</w>": 8674,
  "Pi</w>": 8675,
  "47": 8676,
  "Ultrasound</w>": 8677,
  "captured</w>": 8678,
  "trim": 8679,
  "City</w>": 8680,
  "disk</w>": 8681,
  "op</w>": 8682,
  "diver": 8683,
  "Few</w>": 8684,
  "alised</w>": 8685,
  "histopathology</w>": 8686,
  "integrating</w>": 8687,
  "RC</w>": 8688,
  "allergens</w>": 8689,
  "Pi": 8690,
  "apo": 8691,
  "09</w>": 8692,
  "ade</w>": 8693,
  "intakes</w>": 8694,
  "immunologic</w>": 8695,
  "assi": 8696,
  "Education</w>": 8697,
  "victims</w>": 8698,
  "silicone</w>": 8699,
  "catalysts</w>": 8700,
  "collateral</w>": 8701,
  "implies</w>": 8702,
  "potentiated</w>": 8703,
  "normalization</w>": 8704,
  "ketamine</w>": 8705,
  "ures</w>": 8706,
  "NPY</w>": 8707,
  "mechanics</w>": 8708,
  "orthodontic</w>": 8709,
  "comorbid</w>": 8710,
  "microbiome</w>": 8711,
  "stool</w>": 8712,
  "CHF</w>": 8713,
  "engaged</w>": 8714,
  "VR</w>": 8715,
  "MF</w>": 8716,
  "intellectual</w>": 8717,
  "Ox": 8718,
  "selecting</w>": 8719,
  "Consistent</w>": 8720,
  "HE</w>": 8721,
  "integrate</w>": 8722,
  "angular</w>": 8723,
  "ZnO</w>": 8724,
  "obstetric</w>": 8725,
  "Å</w>": 8726,
  "cardiomyocytes</w>": 8727,
  "patent</w>": 8728,
  "Failure</w>": 8729,
  "Skin</w>": 8730,
  "enes</w>": 8731,
  "tran": 8732,
  "gentamicin</w>": 8733,
  "Ig": 8734,
  "•</w>": 8735,
  "casein</w>": 8736,
  "pacemaker</w>": 8737,
  "57": 8738,
  "rotational</w>": 8739,
  "dist": 8740,
  "hemolytic</w>": 8741,
  "117</w>": 8742,
  "exercises</w>": 8743,
  "generations</w>": 8744,
  "anticipated</w>": 8745,
  "docking</w>": 8746,
  "Complications</w>": 8747,
  "OM</w>": 8748,
  "congestive</w>": 8749,
  "projects</w>": 8750,
  "necrotic</w>": 8751,
  "sustainable</w>": 8752,
  "chip</w>": 8753,
  "132</w>": 8754,
  "vast</w>": 8755,
  "adsorbed</w>": 8756,
  "flows</w>": 8757,
  "HCl</w>": 8758,
  "Muscle</w>": 8759,
  "determines</w>": 8760,
  "representations</w>": 8761,
  "coming</w>": 8762,
  "elegans</w>": 8763,
  "nephrectomy</w>": 8764,
  "preceded</w>": 8765,
  "omorph": 8766,
  "Hepatitis</w>": 8767,
  "Inc</w>": 8768,
  "fibrils</w>": 8769,
  "FEV1</w>": 8770,
  "sediments</w>": 8771,
  "hor": 8772,
  "FDA</w>": 8773,
  "anomaly</w>": 8774,
  "concordance</w>": 8775,
  "depended</w>": 8776,
  "compensatory</w>": 8777,
  "occasionally</w>": 8778,
  "ned</w>": 8779,
  "DG</w>": 8780,
  "radiologic</w>": 8781,
  "peri</w>": 8782,
  "stores</w>": 8783,
  "toxicities</w>": 8784,
  "parenchyma</w>": 8785,
  "Natural</w>": 8786,
  "E3</w>": 8787,
  "Nursing</w>": 8788,
  "Interaction</w>": 8789,
  "Individual</w>": 8790,
  "sheath</w>": 8791,
  "Pretreatment</w>": 8792,
  "thorough</w>": 8793,
  "presynaptic</w>": 8794,
  "carnitine</w>": 8795,
  "polarized</w>": 8796,
  "excluding</w>": 8797,
  "Cohort</w>": 8798,
  "ulate</w>": 8799,
  "Individuals</w>": 8800,
  "doctor</w>": 8801,
  "sac</w>": 8802,
  "MN</w>": 8803,
  "700</w>": 8804,
  "penetrating</w>": 8805,
  "Clostridium</w>": 8806,
  "129</w>": 8807,
  "CABG</w>": 8808,
  "opioids</w>": 8809,
  "otypic</w>": 8810,
  "hematologic</w>": 8811,
  "infancy</w>": 8812,
  "endurance</w>": 8813,
  "0.95</w>": 8814,
  "bony</w>": 8815,
  "Prior</w>": 8816,
  "KD</w>": 8817,
  "haemoglobin</w>": 8818,
  "dispersed</w>": 8819,
  "immunostaining</w>": 8820,
  "Up</w>": 8821,
  "microwave</w>": 8822,
  "BV</w>": 8823,
  "cytogenetic</w>": 8824,
  "monolayers</w>": 8825,
  "ths</w>": 8826,
  "brachial</w>": 8827,
  "laminin</w>": 8828,
  "mismatch</w>": 8829,
  "Exercise</w>": 8830,
  "directional</w>": 8831,
  "rhinitis</w>": 8832,
  "pseudo": 8833,
  "competing</w>": 8834,
  "dimers</w>": 8835,
  "neoadjuvant</w>": 8836,
  "residence</w>": 8837,
  "X2</w>": 8838,
  "Collectively</w>": 8839,
  "acted</w>": 8840,
  "rectum</w>": 8841,
  "And</w>": 8842,
  "ABC</w>": 8843,
  "fa": 8844,
  "Fre": 8845,
  "AEs</w>": 8846,
  "IGFBP</w>": 8847,
  "Receptor</w>": 8848,
  "survive</w>": 8849,
  "transit</w>": 8850,
  "GPs</w>": 8851,
  "Endoscopic</w>": 8852,
  "leuk": 8853,
  "RH</w>": 8854,
  "int": 8855,
  "approval</w>": 8856,
  "NPC</w>": 8857,
  "QT</w>": 8858,
  "oxidant</w>": 8859,
  "haplotypes</w>": 8860,
  "updated</w>": 8861,
  "amides</w>": 8862,
  "lymphoblastic</w>": 8863,
  "tetr": 8864,
  "0.85</w>": 8865,
  "113</w>": 8866,
  "Elevated</w>": 8867,
  "Respiratory</w>": 8868,
  "pelvis</w>": 8869,
  "15.": 8870,
  "zing</w>": 8871,
  "LT": 8872,
  "antenatal</w>": 8873,
  "nodule</w>": 8874,
  "Reg": 8875,
  "cue</w>": 8876,
  "genotyping</w>": 8877,
  "revised</w>": 8878,
  "correspond</w>": 8879,
  "Cd": 8880,
  "worsening</w>": 8881,
  "def": 8882,
  "Adults</w>": 8883,
  ".0001</w>": 8884,
  "aerosol</w>": 8885,
  "prostatectomy</w>": 8886,
  "consciousness</w>": 8887,
  "centrifugation</w>": 8888,
  "underlie</w>": 8889,
  "cry": 8890,
  "secreting</w>": 8891,
  "row</w>": 8892,
  "trajectory</w>": 8893,
  "flies</w>": 8894,
  "sonography</w>": 8895,
  "Red</w>": 8896,
  "our": 8897,
  "fluorouracil</w>": 8898,
  "reciprocal</w>": 8899,
  "TI</w>": 8900,
  "Monte</w>": 8901,
  "branched</w>": 8902,
  "operator</w>": 8903,
  "excitability</w>": 8904,
  "phyt": 8905,
  "Characteristics</w>": 8906,
  "constitutively</w>": 8907,
  "cultivation</w>": 8908,
  "maturity</w>": 8909,
  "bicarbonate</w>": 8910,
  "350</w>": 8911,
  "Cl-</w>": 8912,
  "disp": 8913,
  "km</w>": 8914,
  "intramuscular</w>": 8915,
  "Ti": 8916,
  "incorporate</w>": 8917,
  "Sixteen</w>": 8918,
  "skill</w>": 8919,
  "Cyt": 8920,
  "teachers</w>": 8921,
  "TRIAL</w>": 8922,
  "ACT</w>": 8923,
  "vasculitis</w>": 8924,
  "SMA</w>": 8925,
  "©</w>": 8926,
  "importantly</w>": 8927,
  "Are</w>": 8928,
  "Obesity</w>": 8929,
  "security</w>": 8930,
  "olog": 8931,
  "threonine</w>": 8932,
  "preeclampsia</w>": 8933,
  "4,5</w>": 8934,
  "hum": 8935,
  "phyl": 8936,
  "juice</w>": 8937,
  "vibration</w>": 8938,
  "velocities</w>": 8939,
  "AO": 8940,
  "mine</w>": 8941,
  "boundaries</w>": 8942,
  "metalloproteinase</w>": 8943,
  "aluminum</w>": 8944,
  "Mass</w>": 8945,
  "Public</w>": 8946,
  "histopathologic</w>": 8947,
  "cyan": 8948,
  "lies</w>": 8949,
  "cos": 8950,
  "omy": 8951,
  "Relative</w>": 8952,
  "ish</w>": 8953,
  "tubule</w>": 8954,
  "stressors</w>": 8955,
  "stabilizing</w>": 8956,
  "notably</w>": 8957,
  "Carlo</w>": 8958,
  "confer</w>": 8959,
  "imp": 8960,
  "menopausal</w>": 8961,
  "TRH</w>": 8962,
  "Diseases</w>": 8963,
  "therm": 8964,
  "thalamus</w>": 8965,
  "tle</w>": 8966,
  "erc": 8967,
  "Cerebral</w>": 8968,
  "consumers</w>": 8969,
  "comprises</w>": 8970,
  "sharp</w>": 8971,
  "ze": 8972,
  "translated</w>": 8973,
  "Dynamic</w>": 8974,
  "progressed</w>": 8975,
  "07</w>": 8976,
  "Spontaneous</w>": 8977,
  "CML</w>": 8978,
  "properly</w>": 8979,
  "Br</w>": 8980,
  "LA": 8981,
  "Tn": 8982,
  "127</w>": 8983,
  "carboxy": 8984,
  "sterile</w>": 8985,
  "Mod": 8986,
  "long": 8987,
  "-2": 8988,
  "lot</w>": 8989,
  "Cer": 8990,
  "age-</w>": 8991,
  "collaborative</w>": 8992,
  "ethics</w>": 8993,
  "frog</w>": 8994,
  "removing</w>": 8995,
  "121</w>": 8996,
  "febrile</w>": 8997,
  "columns</w>": 8998,
  "phon": 8999,
  "berg</w>": 9000,
  "entr": 9001,
  "75": 9002,
  "0.96</w>": 9003,
  "camera</w>": 9004,
  "anions</w>": 9005,
  "Alcohol</w>": 9006,
  "End": 9007,
  "cyclooxygenase</w>": 9008,
  "whilst</w>": 9009,
  "resultant</w>": 9010,
  "posed</w>": 9011,
  "Sol": 9012,
  "psychometric</w>": 9013,
  "118</w>": 9014,
  "X1</w>": 9015,
  "oti": 9016,
  "ely</w>": 9017,
  "GP": 9018,
  "von</w>": 9019,
  "ball</w>": 9020,
  "suppressive</w>": 9021,
  "sarcoidosis</w>": 9022,
  "smear</w>": 9023,
  "ogens</w>": 9024,
  "whereby</w>": 9025,
  "0.007</w>": 9026,
  "isomers</w>": 9027,
  "wing</w>": 9028,
  "highlighting</w>": 9029,
  "simulate</w>": 9030,
  "portions</w>": 9031,
  "NK": 9032,
  "Nuclear</w>": 9033,
  "So</w>": 9034,
  "hamsters</w>": 9035,
  "Sex</w>": 9036,
  "Thirteen</w>": 9037,
  "ancy</w>": 9038,
  "Calcium</w>": 9039,
  "counter</w>": 9040,
  "gal": 9041,
  "CAR</w>": 9042,
  "seminal</w>": 9043,
  "microsatellite</w>": 9044,
  "proteolysis</w>": 9045,
  "bel": 9046,
  "fentanyl</w>": 9047,
  "preferential</w>": 9048,
  "-1.": 9049,
  "Disorders</w>": 9050,
  "Mediterranean</w>": 9051,
  "tuning</w>": 9052,
  "cooperation</w>": 9053,
  "homogeneity</w>": 9054,
  "readmission</w>": 9055,
  "testes</w>": 9056,
  "MF": 9057,
  "papillomavirus</w>": 9058,
  "name</w>": 9059,
  "Reduction</w>": 9060,
  "anus</w>": 9061,
  "0.97</w>": 9062,
  "Real</w>": 9063,
  "ND": 9064,
  "VD</w>": 9065,
  "disturbed</w>": 9066,
  "ders</w>": 9067,
  "supine</w>": 9068,
  "engage</w>": 9069,
  "ute</w>": 9070,
  "istic</w>": 9071,
  "pools</w>": 9072,
  "shapes</w>": 9073,
  "Ste": 9074,
  "ecosystems</w>": 9075,
  "forensic</w>": 9076,
  "acceptability</w>": 9077,
  "-di": 9078,
  "Radiation</w>": 9079,
  "t1</w>": 9080,
  "treadmill</w>": 9081,
  "Lin": 9082,
  "cava</w>": 9083,
  "Sc": 9084,
  "transiently</w>": 9085,
  "A4</w>": 9086,
  "indexes</w>": 9087,
  "Ed": 9088,
  "acutely</w>": 9089,
  "Aut": 9090,
  "indole</w>": 9091,
  "mann</w>": 9092,
  "transported</w>": 9093,
  "ileal</w>": 9094,
  "backbone</w>": 9095,
  "hyperthermia</w>": 9096,
  "subarachnoid</w>": 9097,
  "Medicaid</w>": 9098,
  "simplified</w>": 9099,
  "ö": 9100,
  "inated</w>": 9101,
  "ophilic</w>": 9102,
  "Mi": 9103,
  "BBB</w>": 9104,
  "Disorder</w>": 9105,
  "hol": 9106,
  "Monitoring</w>": 9107,
  "don": 9108,
  "consist</w>": 9109,
  "cow</w>": 9110,
  "BE</w>": 9111,
  "scarce</w>": 9112,
  "achievement</w>": 9113,
  "08</w>": 9114,
  "Logistic</w>": 9115,
  "detergent</w>": 9116,
  "anaemia</w>": 9117,
  "Sn": 9118,
  "Committee</w>": 9119,
  "Bax</w>": 9120,
  "prey</w>": 9121,
  "Overexpression</w>": 9122,
  "isometric</w>": 9123,
  "quantitation</w>": 9124,
  "River</w>": 9125,
  "ce</w>": 9126,
  "die</w>": 9127,
  "ices</w>": 9128,
  "otoxic</w>": 9129,
  "format</w>": 9130,
  "ff</w>": 9131,
  "Pearson</w>": 9132,
  "replace</w>": 9133,
  "ene": 9134,
  "arousal</w>": 9135,
  "HepG2</w>": 9136,
  "continuity</w>": 9137,
  "neuropathic</w>": 9138,
  "aqu": 9139,
  "belong</w>": 9140,
  "La": 9141,
  "9,": 9142,
  "Lys": 9143,
  "stopped</w>": 9144,
  "dermat": 9145,
  "collecting</w>": 9146,
  "dysregulation</w>": 9147,
  "Bre": 9148,
  "infiltrating</w>": 9149,
  "laparoscopy</w>": 9150,
  "49": 9151,
  "Epstein</w>": 9152,
  "Next</w>": 9153,
  "GLP</w>": 9154,
  "parenchymal</w>": 9155,
  "rhythms</w>": 9156,
  "solving</w>": 9157,
  "tins</w>": 9158,
  "collect</w>": 9159,
  "inheritance</w>": 9160,
  "vertebrates</w>": 9161,
  "tation</w>": 9162,
  "cornea</w>": 9163,
  "histocompatibility</w>": 9164,
  "Symptoms</w>": 9165,
  "Mat": 9166,
  "Objectives</w>": 9167,
  "measles</w>": 9168,
  "colonoscopy</w>": 9169,
  "Active</w>": 9170,
  "mimicking</w>": 9171,
  "210</w>": 9172,
  "Swedish</w>": 9173,
  "VTE</w>": 9174,
  "subtle</w>": 9175,
  "ord": 9176,
  "grew</w>": 9177,
  "corresponds</w>": 9178,
  "morphologically</w>": 9179,
  "Clinic</w>": 9180,
  "ylo": 9181,
  "ially</w>": 9182,
  "neutropenia</w>": 9183,
  "Barr</w>": 9184,
  "trigeminal</w>": 9185,
  "CLL</w>": 9186,
  "modules</w>": 9187,
  "Py": 9188,
  "thirds</w>": 9189,
  "acetylation</w>": 9190,
  "clock</w>": 9191,
  "ties</w>": 9192,
  "hyp": 9193,
  "organelles</w>": 9194,
  "icin</w>": 9195,
  "lysozyme</w>": 9196,
  "ox</w>": 9197,
  "favourable</w>": 9198,
[...]
